-- begin_signature
-- weight_cnn_rom
-- end_signature
WIDTH=32;
DEPTH=63654;

ADDRESS_RADIX=UNS;
DATA_RADIX=BIN;

CONTENT BEGIN
	63653 :	00111100100100000000100101101100;
	63652 :	00111101110100011100011110101000;
	63651 :	10111101110110011111011100010000;
	63650 :	10111101101010010100110100100100;
	63649 :	10111101011110001100000110110000;
	63648 :	10111100101001001110011001111010;
	63647 :	10111100101101100010101110111000;
	63646 :	00111110001000110011111100111111;
	63645 :	10111101100111101001010001011101;
	63644 :	00111101000001001111010100000010;
	63643 :	10111010011000010100001011101010;
	63642 :	10111101000111011101111101000101;
	63641 :	10111101100100111101000111011100;
	63640 :	10111110000111010110010111110100;
	63639 :	10111101011000000101011101101000;
	63638 :	00111110011000001111001110101000;
	63637 :	10111110000010001000110101110111;
	63636 :	00111101111010101010110011011110;
	63635 :	10111101001011101111111110110111;
	63634 :	10111101111010001001000101001000;
	63633 :	00111101001100001100000110100010;
	63632 :	00111101111001000010010011101000;
	63631 :	10111100010001000110000101000001;
	63630 :	00111100111101011001001000101111;
	63629 :	10111101010011001101101101001011;
	63628 :	10111101011000100000000110110010;
	63627 :	00111110010111100000111010111010;
	63626 :	10111110100101001000011101010001;
	63625 :	00111110001101011011000000010001;
	63624 :	10111101111011100100100101111010;
	63623 :	10111101110000110101010000100110;
	63622 :	10111110000111001001000100001011;
	63621 :	10111100110001100100110011011001;
	63620 :	00111101110110100011001100011000;
	63619 :	10111100000010010101011001001011;
	63618 :	00111101011111111011111011001101;
	63617 :	00111101110110011000000111000100;
	63616 :	10111110000010101000011000101001;
	63615 :	00111100110111101111000000001111;
	63614 :	00111110000101010010110110101110;
	63613 :	00111110101001100010111001000010;
	63612 :	10111100000010010101100001001000;
	63611 :	10111100110000101110110110011101;
	63610 :	10111110001111001000100100001010;
	63609 :	00111110000001101110100010111110;
	63608 :	00111101100011110100010111011010;
	63607 :	10111101001101010001101111111100;
	63606 :	10111100010101001010001010010000;
	63605 :	00111101110101101010000011110010;
	63604 :	10111101100100111110111011010101;
	63603 :	00111110010011101111100101011010;
	63602 :	10111101111010001110100010110011;
	63601 :	10111110100001010000011110010010;
	63600 :	10111101001101101001100011010000;
	63599 :	10111101011110101110011100010000;
	63598 :	10111101110100011100001011011010;
	63597 :	00111010101011110010010010001101;
	63596 :	10111110010000100100011011110100;
	63595 :	10111110010101000000011010111101;
	63594 :	10111110000001010100100011010001;
	63593 :	10111100100000011011010110000010;
	63592 :	10111101110000001111001101101011;
	63591 :	10111101111001101101110100010001;
	63590 :	10111110001110111000000001110100;
	63589 :	00111011101110000011111010011101;
	63588 :	10111110010001010111011011100111;
	63587 :	00111101100100110001010000011111;
	63586 :	00111101110111111011011000001010;
	63585 :	00111101111110111101110011011011;
	63584 :	00111101100110100101000101010110;
	63583 :	00111110100101011111001001101101;
	63582 :	10111101111100101011100001000011;
	63581 :	10111101100001100111110001111001;
	63580 :	00111110010000101101111000101001;
	63579 :	10111110000101000110000011010110;
	63578 :	00111110101001101110000010000011;
	63577 :	00111011110010110111001110111000;
	63576 :	00111110010001111110110000000000;
	63575 :	00111101011000111110000011111011;
	63574 :	00111101101101111100101001010101;
	63573 :	10111110000011100011010011011001;
	63572 :	10111100110101111010110101101100;
	63571 :	10111101001110100001011001011101;
	63570 :	00111110011111101100000000101010;
	63569 :	10111110100000000000000100111001;
	63568 :	00111101000011011001000011110000;
	63567 :	00111101101110011101100001001011;
	63566 :	00111101111000100011011100011010;
	63565 :	10111101100011111000011100010010;
	63564 :	00111110001011010010101100110001;
	63563 :	00111101101101011001100000000100;
	63562 :	00111101111000010011111111010001;
	63561 :	10111101000110110001100101111000;
	63560 :	00111011100111000111101001100001;
	63559 :	00111101000110001011110101101000;
	63558 :	10111100010001010011010010110101;
	63557 :	00111101101111011111010001010110;
	63556 :	00111101010000010111110101100111;
	63555 :	00111100010010010000011111000001;
	63554 :	00111101110000001010111000101101;
	63553 :	10111110001001010011001100111110;
	63552 :	10111101000010110011101110100111;
	63551 :	10111101010011100111000111011111;
	63550 :	10111110001101001110010111111001;
	63549 :	10111101000101011101111011111110;
	63548 :	00111101010001101101100111101110;
	63547 :	10111101111101101100000110010110;
	63546 :	10111101010110101000100001101011;
	63545 :	10111100001011101111011010100111;
	63544 :	10111101000001010010110100001110;
	63543 :	00111101101010111100111011000111;
	63542 :	00111010101010100001110100000110;
	63541 :	10111101111010110110110001010011;
	63540 :	10111110010001010110011011001010;
	63539 :	10111101111110011011000011011111;
	63538 :	10111110000001111101001001001001;
	63537 :	10111101010010011010001110111100;
	63536 :	00111101100000001100111101000100;
	63535 :	00111100111010110110101111111001;
	63534 :	10111100011111010001101010001001;
	63533 :	10111110001101011101011001101010;
	63532 :	00111110000001101011110110000100;
	63531 :	00111101001011001110010110101001;
	63530 :	10111110001000010110001101010100;
	63529 :	00111101101111000111001001000011;
	63528 :	00111100111011101010001000001010;
	63527 :	00111101100100111101011010100110;
	63526 :	10111101110101001100111011101111;
	63525 :	00111101111101101001110111110001;
	63524 :	10111101011101010001110111000110;
	63523 :	00111110011000000111101111010011;
	63522 :	10111110000010100100111000111011;
	63521 :	00111110000010111111011000111101;
	63520 :	00111110000001011010000010111000;
	63519 :	10111110000111000110000011101011;
	63518 :	10111101010101011010100010010000;
	63517 :	00111110011101111010110111000111;
	63516 :	10111110001000011110000100101000;
	63515 :	00111110011100001000101111100111;
	63514 :	10111110000111110111011011011010;
	63513 :	00111110010100110010100110100100;
	63512 :	00111110101000010000001010101000;
	63511 :	10111101101001011101000001000111;
	63510 :	10111110100000010010000101111010;
	63509 :	00111110100010100111011110111111;
	63508 :	10111101101011100111000010001111;
	63507 :	00111010001101110000001001111011;
	63506 :	00111110001010100100001010010111;
	63505 :	10111101110111011101010110011010;
	63504 :	00111101011000101101101111000101;
	63503 :	10111110001100000110111010101111;
	63502 :	00111110001000101001000111000011;
	63501 :	10111101100010101110110001101100;
	63500 :	00111100101010011010010000001011;
	63499 :	00111110100101100101110010111001;
	63498 :	00111011101100100001000001100000;
	63497 :	00111101000111000011001011100111;
	63496 :	10111101010100000101000110011101;
	63495 :	10111101111000010101000111110011;
	63494 :	00111100111010101110111100000101;
	63493 :	00111101100011000011000010000111;
	63492 :	10111101100100100111100011111000;
	63491 :	00111101111001100011000101011001;
	63490 :	00111110000100111100100111000001;
	63489 :	00111101111101000000111111110111;
	63488 :	10111101011010110100000101101000;
	63487 :	10111011001111100000101011101111;
	63486 :	10111100111100010001010111101100;
	63485 :	10111101010110111101100110111011;
	63484 :	10111101100000111110010001110001;
	63483 :	00111100100100001010100100100110;
	63482 :	00111110001011010000011001011010;
	63481 :	10111110001001101101001000110000;
	63480 :	00111110000100001111010001010010;
	63479 :	10111110011111100100100001111110;
	63478 :	10111110100110101111110011001011;
	63477 :	00111101101011011000001001111011;
	63476 :	10111101100110110111010011110110;
	63475 :	10111101110010011110000101010110;
	63474 :	10111110000101101010101010010100;
	63473 :	00111100110011001011010111001010;
	63472 :	00111110001001100011100101111101;
	63471 :	10111110101010000000001111001000;
	63470 :	10111101000001001001100011000010;
	63469 :	10111101011111101111110110010000;
	63468 :	00111101100100110111000000010110;
	63467 :	10111101110110000010011110110100;
	63466 :	10111110001111111010111110000001;
	63465 :	10111101110000101100001011110001;
	63464 :	00111101010101101100010101011000;
	63463 :	00111101000011011110100001001010;
	63462 :	10111110110001001100111111000111;
	63461 :	00111101100011010100000010110000;
	63460 :	10111100101100101101100100001011;
	63459 :	00111110100010000111101101011111;
	63458 :	10111100100110101110000100101111;
	63457 :	00111101101110101111000110000010;
	63456 :	00111101010000000000100010111111;
	63455 :	10111101100001110001110100000000;
	63454 :	10111100011001011110111110001000;
	63453 :	10111101010011010110000000010011;
	63452 :	00111110101011011011010111010100;
	63451 :	10111110011111001110100001000000;
	63450 :	10110111010011101011010000001001;
	63449 :	00111110001010101001101001110001;
	63448 :	00111110001010001000011011111000;
	63447 :	00111100001101010000000011111101;
	63446 :	10111101010110001010111000110101;
	63445 :	00111110000000110011000111110100;
	63444 :	00111101101111100101100001110111;
	63443 :	10111101100100000010001101010001;
	63442 :	10111101000111000100100111011111;
	63441 :	00111101101100010010011101001001;
	63440 :	10111101010101110001101010011011;
	63439 :	10111101010100101101011011010010;
	63438 :	10111011101100110111001101001011;
	63437 :	00111010101001110100100101101001;
	63436 :	00111110100101110001010110100101;
	63435 :	00111101100010100111101110110010;
	63434 :	00111101100110100100110000100000;
	63433 :	10111100010110011001010001100101;
	63432 :	10111110000111100010010101001000;
	63431 :	00111110001100001000111010010010;
	63430 :	00111101000001010001110011011101;
	63429 :	00111101100101010001011001101101;
	63428 :	10111100110000100010100111101111;
	63427 :	10111101111001011101001101100111;
	63426 :	10111100110100101000101001011111;
	63425 :	10111100110100100100100101111000;
	63424 :	00111101011111011100111111100010;
	63423 :	00111110001100101111111000010011;
	63422 :	00111101100100101000110101001011;
	63421 :	00111110001010100110010010111001;
	63420 :	00111110001011100111111101000001;
	63419 :	00111101110010111100011011010001;
	63418 :	00111101001111011001010100001110;
	63417 :	00111101110110111010010101000010;
	63416 :	10111100110000001101101001111110;
	63415 :	10111110010100000100111110011110;
	63414 :	10111110101000011000011000001011;
	63413 :	00111101100011111000110000110000;
	63412 :	10111110001011001001000110110111;
	63411 :	00111110010110010011010100100000;
	63410 :	00111110100011001001010000100110;
	63409 :	10111101010010011101010111011000;
	63408 :	10111110010110110111100111110110;
	63407 :	00111110001001110011100100000001;
	63406 :	10111101001100010010101111001001;
	63405 :	10111101101111101000001001010011;
	63404 :	10111110001000011000010010100000;
	63403 :	00111101010110011011110000001101;
	63402 :	10111011111111000101111110000111;
	63401 :	00111100001110001111011000110110;
	63400 :	10111101001100111110011001110011;
	63399 :	00111110001010011010000100010011;
	63398 :	10111110010100001100101101100011;
	63397 :	10111110011000111100111011011001;
	63396 :	00111100100100010010100011110001;
	63395 :	10111101000001001110101010110011;
	63394 :	00111100111111111010010100111010;
	63393 :	10111101010000101100111000010111;
	63392 :	00111110011011100111111100110000;
	63391 :	10111101101011010001110111000001;
	63390 :	00111110010000100000000100010010;
	63389 :	10111100101000001100110011111010;
	63388 :	10111110000011010000101110000001;
	63387 :	00111110000011001101000101110101;
	63386 :	00111100100001101010010000110101;
	63385 :	10111110110000101000111101111001;
	63384 :	10111110001010001110011110111010;
	63383 :	10111110000110100110111111110100;
	63382 :	10111110001100010100011010111001;
	63381 :	00111101110010011101111110111010;
	63380 :	00111101101011100110000001001110;
	63379 :	00111101110111000001011011001101;
	63378 :	10111110011101110100000001011110;
	63377 :	00111101011010101100100100101111;
	63376 :	10111110010001010101011110100011;
	63375 :	00111110001101010110001100100110;
	63374 :	00111101101101100100000011111110;
	63373 :	10111101111110110111000010011101;
	63372 :	00111101101101011010010000001011;
	63371 :	10111101101111010010101100100101;
	63370 :	10111101111111110011110100011000;
	63369 :	10111110010010100110111110011000;
	63368 :	00111101111000011100001000110000;
	63367 :	10111101110010011001011001010000;
	63366 :	00111100111010100000001110001001;
	63365 :	10111101110100001111110001001101;
	63364 :	00111101111101001010100011001110;
	63363 :	10111101110111010100110111001011;
	63362 :	00111110010101001001010100101110;
	63361 :	10111101010101001011011000011001;
	63360 :	00111101110111111000001110010100;
	63359 :	10111100110001100111100011011001;
	63358 :	10111101101100011011000111100110;
	63357 :	00111101011110001010100001110000;
	63356 :	00111101111101010110010100101001;
	63355 :	00111101011101100011011011110100;
	63354 :	10111101010001111110101101011101;
	63353 :	00111110110010011011010000001011;
	63352 :	00111101110001100111000010111001;
	63351 :	10111101110111011010110011000011;
	63350 :	10111101011000110000000010100111;
	63349 :	10111101001100000001001100000010;
	63348 :	00111110001000011101010101001101;
	63347 :	00111101110010011101010000110110;
	63346 :	10111110010001001001110111000100;
	63345 :	00111101101101000011110110101010;
	63344 :	10111100100101111011100001011110;
	63343 :	00111110011011000010000110101101;
	63342 :	00111101010000110100101110011111;
	63341 :	10111100110011010111111000100000;
	63340 :	00111101101110011111011101110011;
	63339 :	10111110000100010001001100011110;
	63338 :	00111101110010101110010001111000;
	63337 :	10111101011110011001100110111101;
	63336 :	00111110001011001011001101000110;
	63335 :	10111100011001101111011101001101;
	63334 :	10111110000001100000100011011110;
	63333 :	10111110010111111111111110000000;
	63332 :	10111101111000100110010000000101;
	63331 :	10111110000000011111101111110011;
	63330 :	10111101100010111010011001101100;
	63329 :	00111101010100011010110111111101;
	63328 :	10111100100001000111100101101000;
	63327 :	00111110010111010111110010011100;
	63326 :	10111101011110100010001011101011;
	63325 :	10111101110100111001110111001101;
	63324 :	10111101101110001101010010011111;
	63323 :	10111100000101111000001011011001;
	63322 :	10111110001000000100011101101110;
	63321 :	00111101100000001111100001010000;
	63320 :	00111110010111010100001010000011;
	63319 :	10111101110100110010111011111110;
	63318 :	10111110011000111011000010011101;
	63317 :	00111101110110111110111101100100;
	63316 :	10111101101100011011011001111011;
	63315 :	00111110000000110001101011011111;
	63314 :	00111011110010101101010111000000;
	63313 :	10111101101110101101001100101110;
	63312 :	00111110000010011001101100001011;
	63311 :	00111101101011101100101001010001;
	63310 :	10111110101000100111011001100010;
	63309 :	10111100000100110110011001000001;
	63308 :	00111101011110000111111011000010;
	63307 :	10111101101011110001111000110111;
	63306 :	00111110101001000010010111011100;
	63305 :	00111100110111011011110111000010;
	63304 :	00111110100001001100011001110001;
	63303 :	10111101101101100110010110011100;
	63302 :	10111100010000011011100101111101;
	63301 :	10111101111100010101011100110001;
	63300 :	10111110001111101011001110011100;
	63299 :	10111101001011000001111011100110;
	63298 :	10111110100000011010000111011100;
	63297 :	10111101010111111001011000011011;
	63296 :	00111101110010011100011011101010;
	63295 :	10111101101101111011110100011100;
	63294 :	00111110000011001011101101101100;
	63293 :	00111110100011110110101101101101;
	63292 :	10111100000000010010111101000011;
	63291 :	10111101011000001000001111001000;
	63290 :	10111101101011100101001111011100;
	63289 :	10111101110111101110001001111111;
	63288 :	00111110011011010110110011000101;
	63287 :	10111110000110000000010101100100;
	63286 :	00111110100101001001110010100001;
	63285 :	10111110010011100001000000111111;
	63284 :	00111110010110111111001001101111;
	63283 :	10111101100110010111001001100110;
	63282 :	10111011001011001101011111101100;
	63281 :	10111101100100000000000101011110;
	63280 :	00111110000010100100001000100101;
	63279 :	00111101010011101111010011111100;
	63278 :	10111101101000101111011101010101;
	63277 :	10111101000010010111011010101011;
	63276 :	00111110011011001010001010001011;
	63275 :	10111110010001011100101011011111;
	63274 :	10111100100000100010110001000001;
	63273 :	10111110001110000101010000110100;
	63272 :	10111100100010100101010101110100;
	63271 :	10111110000000110100010000001110;
	63270 :	10111101110101011111111101100001;
	63269 :	00111101101001001001010000100100;
	63268 :	10111100100000101001000011111111;
	63267 :	10111101001010010000110110111101;
	63266 :	00111101101110110111001011110001;
	63265 :	00111110000011001101010101001100;
	63264 :	10111110000011001101100011111000;
	63263 :	10111101100101010000010110011101;
	63262 :	00111100001101001000110011000111;
	63261 :	10111101010101010111001110001101;
	63260 :	00111101110111001000010111000100;
	63259 :	00111110001000101011110000101110;
	63258 :	00111101011101001001000111010110;
	63257 :	10111100110100110111011000011000;
	63256 :	10111101010001110101101001010001;
	63255 :	10111110000110001101100011101001;
	63254 :	00111110000111010101100111110111;
	63253 :	00111100000001000000001010001011;
	63252 :	10111110000000000110101100110101;
	63251 :	10111110100001001110110001011100;
	63250 :	00111100010100000100101011000100;
	63249 :	00111101000100111000110110101010;
	63248 :	00111101110010111011010100011101;
	63247 :	00111101010110000000000110010011;
	63246 :	00111110011111110010011011001111;
	63245 :	10111101011000001011000010000101;
	63244 :	00111101110101000000001101111011;
	63243 :	00111101011101100111100011111100;
	63242 :	00111101100000001010110101000101;
	63241 :	10111011000011011000101001111111;
	63240 :	10111101110110110010011011101000;
	63239 :	10111110110000001100001000001010;
	63238 :	00111100011000110111101010111001;
	63237 :	00111110010010000001010011110110;
	63236 :	00111101110110100101010010010011;
	63235 :	00111101011011000110111011111110;
	63234 :	00111110000111111001000100001101;
	63233 :	10111110011111110110111010011011;
	63232 :	10111101111001101010000101001001;
	63231 :	00111101111100100011110001100000;
	63230 :	00111101111100110100010111100101;
	63229 :	10111110010100010001110010010111;
	63228 :	00111110001001011010001111011110;
	63227 :	00111110101011101010111100011110;
	63226 :	00111101100011001000010100010010;
	63225 :	00111100010101011000111001010110;
	63224 :	00111101111001010000001100010110;
	63223 :	00111101101111101011101100000110;
	63222 :	00111101101010101101001001000111;
	63221 :	00111101100110010011001111101101;
	63220 :	00111110100111010110001100010100;
	63219 :	00111110000011111101111101100101;
	63218 :	10111110000001111001101101000010;
	63217 :	10111110100011000100110000000110;
	63216 :	10111101100001111100100001101010;
	63215 :	10111101111100011000010110111001;
	63214 :	10111100100010010100100111011110;
	63213 :	00111101010111110011000100100111;
	63212 :	00111011010100110110111001001011;
	63211 :	00111011101011011001110110111100;
	63210 :	10111101001110010011110101011100;
	63209 :	10111011100001100011011101110011;
	63208 :	10111110011100111111110101000111;
	63207 :	00111110100000001110111011000001;
	63206 :	10111100011000010010001111010111;
	63205 :	10111110100011000010101011011011;
	63204 :	10111110001100000110010110101010;
	63203 :	00111010111001001001100010110011;
	63202 :	00111110110100001111101000000011;
	63201 :	00111110001010100000000110011011;
	63200 :	10111101000000001101011010000000;
	63199 :	10111110010101000001100001000000;
	63198 :	00111101110100111001110010111011;
	63197 :	00111110000011110011111100000010;
	63196 :	00111101001111100001011101100001;
	63195 :	00111101110110010010101010111100;
	63194 :	10111100101101101000100101010000;
	63193 :	00111100100010011010001100011110;
	63192 :	00111110000000010100001010101011;
	63191 :	10111011111101100011000010000100;
	63190 :	10111101110001101011110111011101;
	63189 :	10111100100011100101101001011100;
	63188 :	00111100001000101100110010100010;
	63187 :	10111100101000001100111010100000;
	63186 :	00111101110010110010000101101000;
	63185 :	00111110000101100001111111100001;
	63184 :	00111011111100011000100100111010;
	63183 :	10111101111100000011100001100100;
	63182 :	10111100101100111011110000100000;
	63181 :	00111110100100000001100000011101;
	63180 :	00111110000001111001111011110100;
	63179 :	10111110100100100010111100001001;
	63178 :	10111100101110010110011011100110;
	63177 :	00111101100100011101011110011111;
	63176 :	00111110000100001110101001111000;
	63175 :	00111101100010010000000110001010;
	63174 :	10111011110011011000000101100010;
	63173 :	10111101100101101011101100011100;
	63172 :	10111101100101110011111111101100;
	63171 :	10111101110101001011101000000011;
	63170 :	10111101011000001010011011010110;
	63169 :	00111101101111101111001011111011;
	63168 :	00111101100011010011011001010011;
	63167 :	10111101000110111111000010101011;
	63166 :	10111100111010011100000011010010;
	63165 :	10111110000101101001011011101100;
	63164 :	00111101101111011000010000101001;
	63163 :	10111101000000011001101110100111;
	63162 :	00111101101101110110101100111101;
	63161 :	10111101100000000110010001001101;
	63160 :	00111100010111101001110000101101;
	63159 :	10111100010011011110010000100100;
	63158 :	10111100111100010101011101010100;
	63157 :	10111101100010010101111011010100;
	63156 :	10111110100100111000011000110001;
	63155 :	10111101100110110111010110001111;
	63154 :	00111110000001000111110000010001;
	63153 :	00111110000111101001101110100000;
	63152 :	10111101100111001100011110111010;
	63151 :	00111101100000000110100001000111;
	63150 :	10111100111010000110001011101001;
	63149 :	00111101010101001010100100101010;
	63148 :	00111101101011010001101011010001;
	63147 :	00111110101001001001111110111001;
	63146 :	10111101111111010010100111100000;
	63145 :	00111110000011111101100111100101;
	63144 :	00111110001010111101111011100001;
	63143 :	00111011011111010111111000001010;
	63142 :	00111101010111011000101100101101;
	63141 :	00111101001100101000000101000001;
	63140 :	10111110011101100001000110000110;
	63139 :	10111110100101000111111100010010;
	63138 :	10111100100010101101001111110101;
	63137 :	10111100110110011010001010011000;
	63136 :	10111110001111010101101001000110;
	63135 :	00111101010010011100000111000100;
	63134 :	00111110000100111101101000010101;
	63133 :	10111110000110000111001011000000;
	63132 :	00111110011111011000111011100001;
	63131 :	00111110101100001010011101001100;
	63130 :	00111110011000010000111000110110;
	63129 :	10111110001100010001011100110100;
	63128 :	00111110100010011000000100111001;
	63127 :	10111101011000001000011101001101;
	63126 :	00111110000100010000101011000001;
	63125 :	10111101111001000110010110101100;
	63124 :	00111100110101110000101110011000;
	63123 :	10111110011111010000011010001101;
	63122 :	10111110011100101000100011000100;
	63121 :	00111110010101010001001000010101;
	63120 :	00111101011011100010101100101001;
	63119 :	10111101011001000111000001000100;
	63118 :	00111101100100000110111000110010;
	63117 :	10111101000001011101000011101010;
	63116 :	10111101101111000001110011110111;
	63115 :	10111110100011000101000110001101;
	63114 :	00111110001101100110000000100110;
	63113 :	10111110000010010111110000110001;
	63112 :	10111101101010100001000010011001;
	63111 :	00111100011100011100101000011100;
	63110 :	00111101111100011010101000000111;
	63109 :	00111110100010011110110101011001;
	63108 :	00111110001111110000001100010111;
	63107 :	10111100100110101111110111001100;
	63106 :	00111101001111001010001010010100;
	63105 :	00111110010000001101101100110100;
	63104 :	00111101010010001100110011111110;
	63103 :	10111101110111110010100111111000;
	63102 :	00111110000001011100111011100001;
	63101 :	10111100101000010100100111001111;
	63100 :	00111101100110001001110111101110;
	63099 :	10111011010101011110000111110110;
	63098 :	10111101100100010101000000100110;
	63097 :	10111110001001111101000000001010;
	63096 :	00111110000000100110111111100110;
	63095 :	00111110010010010111111000001010;
	63094 :	10111101101101011111110111010111;
	63093 :	10111110001010101011010010101101;
	63092 :	00111110011110001100110011010100;
	63091 :	10111110100111101000010010011100;
	63090 :	00111101101011101000110100000011;
	63089 :	00111110011010011111111000101101;
	63088 :	10111101110100000011001110000100;
	63087 :	10111011100010010001010101001010;
	63086 :	10111101101101000101001100010101;
	63085 :	00111101111000101110011111111011;
	63084 :	10111110000111000111110001000101;
	63083 :	00111110000001011000110101001110;
	63082 :	00111111000001011111011011111100;
	63081 :	00111101111111010100000110001000;
	63080 :	00111110011110000000001111001010;
	63079 :	10111110000000011101011101000111;
	63078 :	00111101101001000001100011000100;
	63077 :	10111101110101101101000100100111;
	63076 :	10111110001001000110101000111000;
	63075 :	10111101101010010000010111011010;
	63074 :	10111101010000000010101111001000;
	63073 :	00111101111001110000011110001001;
	63072 :	10111100111000111111110110111010;
	63071 :	00111101111000101001000000101000;
	63070 :	00111101000101010010100100011001;
	63069 :	10111100110001010000011000100000;
	63068 :	10111110101111111100000010001001;
	63067 :	00111101110010000111110101011011;
	63066 :	10111101000101111111010111100010;
	63065 :	00111101111010000110011101101011;
	63064 :	00111101110110001000011001111100;
	63063 :	00111101000001100110111101110011;
	63062 :	00111101111000011010111000011010;
	63061 :	10111101110000010001110001001001;
	63060 :	10111100111000101011000000010100;
	63059 :	10111110100001111011011010110000;
	63058 :	10111101000011101001011101111111;
	63057 :	00111101100001000000011010101000;
	63056 :	00111110100100000101111101100110;
	63055 :	10111101111010100101111101111011;
	63054 :	10111101101011000011011110110100;
	63053 :	10111101010101010101000011001111;
	63052 :	10111101001000001111000001110011;
	63051 :	10111110000111000011101101100111;
	63050 :	10111110010111100101111111100011;
	63049 :	00111110000001010111010111100010;
	63048 :	10111110100001010000111100100110;
	63047 :	00111101100010010001011010110110;
	63046 :	00111110001101010000001100010010;
	63045 :	10111110010111110101011100011101;
	63044 :	10111101110010110001100010011111;
	63043 :	10111101101111011110001101011100;
	63042 :	10111101101010101010011110100001;
	63041 :	10111110011010111111100000011101;
	63040 :	10111110001001101110011011101010;
	63039 :	10111101000111101000011011011000;
	63038 :	00111110100010010001010100001010;
	63037 :	00111101110100010100010001011111;
	63036 :	10111101111111101101110010010010;
	63035 :	00111101010011000100111101101101;
	63034 :	10111101110011100110100111010010;
	63033 :	00111110000100101100000001100001;
	63032 :	00111010101101011110110001000110;
	63031 :	00111110001010001111000100100110;
	63030 :	00111100101100100001010100101111;
	63029 :	00111101001010100100111000001000;
	63028 :	10111110000011110101011000001011;
	63027 :	00111101010101010111100110010110;
	63026 :	10111011110110101011101111101010;
	63025 :	10111110011011101000100101001100;
	63024 :	10111101101000001100110100000100;
	63023 :	10111101100100001000010010101001;
	63022 :	00111110000011110101011110110000;
	63021 :	10111110000111111111110101000100;
	63020 :	00111101001100110001111000100010;
	63019 :	00111110101010110001101001000001;
	63018 :	10111110100101110111101101100100;
	63017 :	10111110001011101011000001000001;
	63016 :	00111110010101100010101111001010;
	63015 :	00111101010101110011001001000101;
	63014 :	10111101101011000100011110001111;
	63013 :	10111110000111111111100010100100;
	63012 :	10111101111111101110001111100111;
	63011 :	10111100101000000011110101001010;
	63010 :	10111011101000000000100111011011;
	63009 :	10111110001110010000010111011100;
	63008 :	00111101100000111101101110101001;
	63007 :	10111101101111110011110111011100;
	63006 :	00111110001011000101100001000001;
	63005 :	10111101111011101011100101000010;
	63004 :	10111101001100010101101010001100;
	63003 :	00111110000111000111010000001011;
	63002 :	10111101101000111001010011011000;
	63001 :	10111101011011010001011100100111;
	63000 :	00111110000100011010001001111110;
	62999 :	00111101111111001110101100011101;
	62998 :	00111110000001010101000100110010;
	62997 :	10111110001010000111110000011001;
	62996 :	10111101100110111110000111111000;
	62995 :	10111101000011111110110011001110;
	62994 :	10111100111101000001111110111000;
	62993 :	10111100110111011100011101101001;
	62992 :	00111101101101110100101101000011;
	62991 :	00111100100010110101011011010100;
	62990 :	10111100011000101110000011011000;
	62989 :	10111101100011111111101101001111;
	62988 :	10111100011101011111111001000000;
	62987 :	10111101100101110101001101100001;
	62986 :	00111101111111010111010001001000;
	62985 :	00111100110001101011101111111111;
	62984 :	00111101111010010011011001011011;
	62983 :	10111101000111100110111100000010;
	62982 :	00111101001100010110001010011110;
	62981 :	10111101100110111100001001110110;
	62980 :	10111110010100111011001010010011;
	62979 :	10111001101001001010010010010011;
	62978 :	10111101001110111010110101000001;
	62977 :	10111101001001110101110010101000;
	62976 :	10111110010100011011011101000011;
	62975 :	10111101111001100011111110001011;
	62974 :	00111100100000001000101000110010;
	62973 :	10111100000110111011010110110010;
	62972 :	10111101110000000111110101010010;
	62971 :	10111101101000001110100101011011;
	62970 :	00111101011110111101111001101000;
	62969 :	10111101010101110100010101100101;
	62968 :	00111110001111011000011110011101;
	62967 :	00111101011100000010010100100100;
	62966 :	10111110011010001110100001001010;
	62965 :	00111110001000001111111110111110;
	62964 :	10111101000010010000111000011111;
	62963 :	00111100100110001010000101101010;
	62962 :	10111101010110000101011101000101;
	62961 :	00111101000101011000001010111100;
	62960 :	00111101100000100001000001110100;
	62959 :	00111101100011110010111110111110;
	62958 :	00111101000000100001111101011100;
	62957 :	00111110100111111011110011110110;
	62956 :	10111101111010101100000111100001;
	62955 :	00111110100010100100100001011111;
	62954 :	10111110000100011100011010111100;
	62953 :	00111101111011100101011101111001;
	62952 :	10111101001001011011110010011100;
	62951 :	00111101001001000011011100001101;
	62950 :	10111101111000110100100101001110;
	62949 :	00111110101001111001111101001100;
	62948 :	10111100010110010000011100010000;
	62947 :	10111101001000100010011010110011;
	62946 :	10111110000101100110001000000111;
	62945 :	00111101100111000011101100101011;
	62944 :	10111101111000000000011100010101;
	62943 :	10111101101010110101101000011101;
	62942 :	10111110001001100111111110100010;
	62941 :	00111110100101111101011001001111;
	62940 :	00111100100010011110100111001101;
	62939 :	00111101001001001101000010000111;
	62938 :	00111101100110110110110001001010;
	62937 :	00111110000010000000010110111101;
	62936 :	00111110000001111000111010000100;
	62935 :	10111110001110110111110011100000;
	62934 :	00111101100000101111010101111001;
	62933 :	00111101001011100100100111011000;
	62932 :	00111100000111100100001100011110;
	62931 :	10111110000011010001110110000000;
	62930 :	00111101101010001111011011100111;
	62929 :	10111110010011001010000011001110;
	62928 :	10111110100101000000000100111011;
	62927 :	10111110000000101011001111000111;
	62926 :	00111100111101010011011100000010;
	62925 :	10111110000010111110101000110010;
	62924 :	00111110100100110111100010100001;
	62923 :	00111110001010100001101000000111;
	62922 :	00111101000001101000000000010110;
	62921 :	00111101101011000110011111001101;
	62920 :	00111110000000011011001111111010;
	62919 :	00111101100101100010010010001101;
	62918 :	10111011001011010100101000111000;
	62917 :	10111101110001001100001001010101;
	62916 :	10111110001100110000100001011001;
	62915 :	00111101011100100010101111001000;
	62914 :	00111101110100010000011010001100;
	62913 :	00111101100101100101001000001101;
	62912 :	10111101010001010001010100110100;
	62911 :	10111110011010000110011110001011;
	62910 :	00111101100011101011100111111101;
	62909 :	10111101000001101100010100011111;
	62908 :	00111110010100100110011101100001;
	62907 :	00111110011011000000000101010100;
	62906 :	00111110001011100011001011111011;
	62905 :	00111101111011101011110000001100;
	62904 :	00111110000010111011110011000001;
	62903 :	10111110000000001111111101111010;
	62902 :	10111101110101110111101100110000;
	62901 :	00111110100000001110001101000001;
	62900 :	10111110110101100000010010110101;
	62899 :	00111100110101000001110001101110;
	62898 :	10111110011001000110101101111111;
	62897 :	00111101110111101101111010000001;
	62896 :	10111110000001000001011011111001;
	62895 :	10111110010011000010101111001111;
	62894 :	00111100001101001100001110110001;
	62893 :	10111110010100010101011010111110;
	62892 :	10111101110011111010100000001001;
	62891 :	10111101000000101011000011100110;
	62890 :	00111100110011101110011001101000;
	62889 :	00111101110101001110000001000000;
	62888 :	10111110011110000111101011001000;
	62887 :	10111100110000111101011101010110;
	62886 :	10111101110001101010000111110000;
	62885 :	10111101100110011110101000010011;
	62884 :	00111101010100011010000100101111;
	62883 :	00111110000000101010110000000000;
	62882 :	00111101101100110100000110110011;
	62881 :	10111100101111101111101111011101;
	62880 :	10111110001110001011001000101111;
	62879 :	00111110000000101110110010011010;
	62878 :	00111101111100111010000001000100;
	62877 :	00111110010100011001101111010100;
	62876 :	10111101010010111110000111000010;
	62875 :	00111101100111111000011011000100;
	62874 :	10111101000010110110010011010000;
	62873 :	10111110101001010111100000101001;
	62872 :	00111101111011011110000001000011;
	62871 :	00111101101011110010001110000000;
	62870 :	00111110111001000110100000110011;
	62869 :	10111101100010111001100010011110;
	62868 :	10111110000101000010100101010001;
	62867 :	10111100101010010100111110010100;
	62866 :	10111101101101000111000101111000;
	62865 :	00111110001011100110001001111010;
	62864 :	00111110000000100110010001110000;
	62863 :	00111110100001100001101101011101;
	62862 :	00111101100101111001101000001100;
	62861 :	00111100110100101010111101111000;
	62860 :	10111100110111100000110011010000;
	62859 :	00111100101110100110111011001110;
	62858 :	10111100111011001011111011100110;
	62857 :	10111101110011111111001010100000;
	62856 :	00111110001110110010110110000100;
	62855 :	10111110000101000101100010110011;
	62854 :	00111101110101110011110011000111;
	62853 :	00111110100000111101000100010100;
	62852 :	00111100011111110000110100100000;
	62851 :	00111101101011010111101010000100;
	62850 :	00111101100100100010100100011100;
	62849 :	00111110010011010010111001110000;
	62848 :	10111101101101001100110010011100;
	62847 :	10111101011100010001010101010001;
	62846 :	10111101010111001010101100110001;
	62845 :	10111101110101010100100011000101;
	62844 :	00111110101011101110101010000011;
	62843 :	10111101110111010001100000011101;
	62842 :	10111101010011011000110110110001;
	62841 :	00111110110000011000111100110111;
	62840 :	10111011111100000011101001010000;
	62839 :	10111101100110101001010011110101;
	62838 :	10111101110100111010011000111110;
	62837 :	00111101101001110010111101011001;
	62836 :	10111101110000001010111011111101;
	62835 :	10111101100101100110010000100011;
	62834 :	10111101100011001100010110110000;
	62833 :	00111100001110000010001111110111;
	62832 :	10111101110111011110100010001010;
	62831 :	10111100110101010111011100101000;
	62830 :	00111101100100110000101010100010;
	62829 :	00111100101111111111100101111100;
	62828 :	10111110101110001111101110111011;
	62827 :	00111101111110100100010011111101;
	62826 :	00111101110000010101001010011001;
	62825 :	10111101110000000111011001101100;
	62824 :	00111100101000010001001111011010;
	62823 :	10111101100110110001010101000010;
	62822 :	00111110010000010101010100110000;
	62821 :	00111110000100110100010000111000;
	62820 :	00111110010100111100101111111100;
	62819 :	00111011010011010111011111100000;
	62818 :	10111101011111101101000000101000;
	62817 :	00111110001000011100110110111000;
	62816 :	10111100101110001010100101110000;
	62815 :	10111100101110101000111000100101;
	62814 :	10111101101010011111001001110110;
	62813 :	10111100001100000001101010001110;
	62812 :	10111110001100101111111100001111;
	62811 :	10111110011100101010000011010011;
	62810 :	10111101101111000010100001000100;
	62809 :	00111110100011100011101101110101;
	62808 :	10111110011010001000010011110001;
	62807 :	10111101100000010101100010011100;
	62806 :	00111101111000000101100010110100;
	62805 :	00111101010011000111110111110000;
	62804 :	00111110001001111110011010100100;
	62803 :	10111100111010000111101011001010;
	62802 :	00111101111011100100110011010000;
	62801 :	10111101100010000011010000011100;
	62800 :	10111100011010001001000000000010;
	62799 :	00111100001110110100101011101110;
	62798 :	10111110000111011110010010001011;
	62797 :	10111110100001011010100001111100;
	62796 :	00111110001110101100101110001111;
	62795 :	10111101011010100110001101100101;
	62794 :	00111110100010101101010011111001;
	62793 :	00111100010010010010100001001101;
	62792 :	00111010111100101010100010100001;
	62791 :	10111100100000010000001011001000;
	62790 :	00111110010011110100110110010100;
	62789 :	00111110000101010100011001111000;
	62788 :	00111100111011011000110001011010;
	62787 :	10111110001010011101100011111100;
	62786 :	00111101001111000111100010110100;
	62785 :	10111101100100100100000110100100;
	62784 :	10111101010100001111010100110110;
	62783 :	10111100111100000001001011101010;
	62782 :	00111100110011100010011101111000;
	62781 :	10111110010011001101011000010000;
	62780 :	10111110000010001100110110011011;
	62779 :	00111110001011100111000010111100;
	62778 :	10111101011100101101011100101111;
	62777 :	00111101111000110101110011010001;
	62776 :	00111101101010111101100101000110;
	62775 :	10111101110010111010111011100101;
	62774 :	10111101101000100101010000001000;
	62773 :	00111101100010001110011111011101;
	62772 :	10111010110101110100000010001100;
	62771 :	10111101010000110110101101011011;
	62770 :	10111101001010110010001111100010;
	62769 :	10111110000100011010010010110110;
	62768 :	10111011010011001111000001000011;
	62767 :	10111110001000011100000100100000;
	62766 :	00111011111001101001110010010111;
	62765 :	00111110000010001001100100000111;
	62764 :	10111101110100101001000001110100;
	62763 :	10111100010000110101111111011011;
	62762 :	00111101101011111111000010001110;
	62761 :	00111101010100101011100011010010;
	62760 :	10111100110111111111111100111010;
	62759 :	10111110001011100011001010110101;
	62758 :	10111100111110001001100100000001;
	62757 :	00111101100001100101010100010110;
	62756 :	10111101101110010001110010110001;
	62755 :	00111110010101110101001000011100;
	62754 :	10111101010110101111001111111110;
	62753 :	00111110100001011101101100010110;
	62752 :	00111011011101000100010110001100;
	62751 :	10111110010111100111111111010110;
	62750 :	00111101110010001001000111000000;
	62749 :	00111101110111001100011111110011;
	62748 :	10111101111010110001010000011000;
	62747 :	00111100110101101100110111100100;
	62746 :	10111101011001101001001100101110;
	62745 :	00111101010110001010101001111100;
	62744 :	10111101001111000100111010111111;
	62743 :	10111101110001111101101100011001;
	62742 :	00111101110110001011000010110101;
	62741 :	10111101010010110110110111001010;
	62740 :	10111101101100011110111011100000;
	62739 :	00111110001101001100011110110110;
	62738 :	00111101101101011001001000110001;
	62737 :	00111101011011100111011000000011;
	62736 :	00111110100101111011011000111010;
	62735 :	00111101100110000000101001011101;
	62734 :	00111101001110010100010000111101;
	62733 :	00111110001011110011010000101110;
	62732 :	10111101011100010001100010101001;
	62731 :	10111101100000010111000100000101;
	62730 :	10111110000100001001100000010010;
	62729 :	10111110010110110100001110110000;
	62728 :	10111011110010010110111000011010;
	62727 :	00111101111101000110101011101101;
	62726 :	10111011111110100010100101110100;
	62725 :	10111101110010011101111110100100;
	62724 :	10111110000110010110100101101101;
	62723 :	10111101101000010011111111010000;
	62722 :	10111100110111011011000011001111;
	62721 :	00111101010000110011000100100111;
	62720 :	00111100101010011000011010000001;
	62719 :	00111101100011111110000111011011;
	62718 :	00111100101100110011111101100111;
	62717 :	00111100110110110101001001101100;
	62716 :	10111101110011010110111011000110;
	62715 :	00111110010010000101011010111001;
	62714 :	10111100000101001110000101010111;
	62713 :	00111101111100011000010111110111;
	62712 :	10111110000001010110111110001101;
	62711 :	10111101001100100100111010011001;
	62710 :	00111110100010000111001011100110;
	62709 :	10111101111100011001010100010011;
	62708 :	10111100110101111101101111010010;
	62707 :	10111101110111100111110011011100;
	62706 :	00111101110001110111000000000111;
	62705 :	10111101001011011111011011010000;
	62704 :	00111101111110001100100100011101;
	62703 :	10111110011110001110010011110101;
	62702 :	00111101111101001010001000000001;
	62701 :	00111110000101100111110001011101;
	62700 :	10111101100001001100000100001110;
	62699 :	00111100110110000110010111101110;
	62698 :	00111110000100000110100101010110;
	62697 :	10111110011101010100001000001101;
	62696 :	10111110101011110010011110000011;
	62695 :	00111110000011001110010100000111;
	62694 :	00111101101100010010111001110110;
	62693 :	10111100110110010011110100011001;
	62692 :	10111101100000111011001001010100;
	62691 :	00111101100100010111000100001000;
	62690 :	00111100111001101101110001110111;
	62689 :	10111100110110111010100011011001;
	62688 :	00111101000101100100111011010110;
	62687 :	00111101111011001110110001111000;
	62686 :	10111101110111111101100111100111;
	62685 :	10111101101001001001111000111010;
	62684 :	00111101101101111001100111100011;
	62683 :	10111101110111101110011010010011;
	62682 :	00111101011111110110101011011010;
	62681 :	10111101110110110101100111100111;
	62680 :	10111101001001101110111101011010;
	62679 :	10111101100001100001000010101101;
	62678 :	00111101000100111010010100111010;
	62677 :	00111101111011111111100111011011;
	62676 :	00111110010001001010000001111110;
	62675 :	10111101111100110010110110001011;
	62674 :	10111010100001100111011111111100;
	62673 :	10111100001011111010010111101111;
	62672 :	10111101110000011100100110000101;
	62671 :	00111011101110001010000000010101;
	62670 :	00111101110101110111101001111101;
	62669 :	10111110000111001110001100110111;
	62668 :	00111101100000101111001111000010;
	62667 :	00111101101100111001111011101001;
	62666 :	10111110001000110011010001110111;
	62665 :	10111101011101110110000000011011;
	62664 :	00111110100010111101100010011001;
	62663 :	10111101001110100111111100111110;
	62662 :	10111100010000011001011010111100;
	62661 :	10111101011001001101010010100111;
	62660 :	10111101110110101011011011100101;
	62659 :	00111110000010100101101111100100;
	62658 :	10111101001001011011001101010101;
	62657 :	00111101100110000100110100111110;
	62656 :	10111101100010100010010111010010;
	62655 :	10111101101111101100101110011011;
	62654 :	10111101111010001101100111000001;
	62653 :	10111101011011110100000011000001;
	62652 :	00111101010011001111011010101101;
	62651 :	10111110000011101011010011111100;
	62650 :	10111100111110110110110110011100;
	62649 :	00111110100110100001000101100111;
	62648 :	00111101010111100001100110111001;
	62647 :	00111101111111100010000100101001;
	62646 :	10111101000000110101111101110010;
	62645 :	10111101110110110011101111000100;
	62644 :	10111101101100110000110001011010;
	62643 :	00111110100111001001111110010100;
	62642 :	00111110010001100101100101101011;
	62641 :	10111100001100000011011110100000;
	62640 :	00111101000111010100010100000110;
	62639 :	00111100001110100000100011011011;
	62638 :	10111110100000011101110001011101;
	62637 :	10111011111101110101110100011111;
	62636 :	00111101011101011111000101110001;
	62635 :	00111101101001110010100100010011;
	62634 :	10111100101101111010111011010111;
	62633 :	10111101100010000111100111000011;
	62632 :	00111110000010100010100110000000;
	62631 :	10111101010000001101010101010100;
	62630 :	00111101010110001000001100010010;
	62629 :	10111100100000001011001100110100;
	62628 :	00111100111001110110000011010001;
	62627 :	00111101011100100010101001100010;
	62626 :	10111110101001001000101110100101;
	62625 :	10111101111110010100110111100000;
	62624 :	10111101100111101111100110101110;
	62623 :	00111101011110101001010000001100;
	62622 :	10111110100000101100010111011100;
	62621 :	10111010110010111101101111000110;
	62620 :	00111100100110101111100111010101;
	62619 :	00111101110111111111001010100000;
	62618 :	00111110011111100010111100000000;
	62617 :	00111110001100001101101111000000;
	62616 :	10111101011101101010110011011110;
	62615 :	10111101100000011100101110001001;
	62614 :	10111110011001010111000101000110;
	62613 :	10111110010001100001101011011010;
	62612 :	10111100100110100101111001100001;
	62611 :	00111110000110100110011111010100;
	62610 :	00111101010011010001011101001000;
	62609 :	10111100110100111100101011100101;
	62608 :	10111101101000000010101000000010;
	62607 :	00111101101011010011100000001111;
	62606 :	00111110000000100111001011110110;
	62605 :	00111101101100100001001101011011;
	62604 :	00111100100011111010000011100010;
	62603 :	00111110100101001001011101001111;
	62602 :	10111100100000011111000111100110;
	62601 :	00111101011101100011111111000011;
	62600 :	10111101010001101101110110100100;
	62599 :	10111110100101000110000100011000;
	62598 :	00111110100010100100110101100010;
	62597 :	10111110001101011100100010000100;
	62596 :	00111101101101111011100001011011;
	62595 :	10111100010111101011111001110010;
	62594 :	00111101111010001100101011100111;
	62593 :	00111101110111000111101100101000;
	62592 :	00111110001001101100101110010001;
	62591 :	00111110011000111110100010011000;
	62590 :	00111101110101101110110000101011;
	62589 :	00111110001011111000100111000001;
	62588 :	10111110110010000011111000011100;
	62587 :	00111110010110001011001110001001;
	62586 :	00111101101100111010111000001111;
	62585 :	10111110001101100111101011111100;
	62584 :	10111101000110001001000101010001;
	62583 :	10111101011100011011011110111010;
	62582 :	00111110011100001000011010001110;
	62581 :	10111110010111011100100100001101;
	62580 :	00111100101101010101101010011000;
	62579 :	10111101001110101110100111011010;
	62578 :	10111001101101000001011011001001;
	62577 :	10111110000001001000100110110100;
	62576 :	00111000101110010101101101110000;
	62575 :	10111110001110101100101100011011;
	62574 :	10111101100100110001111111000100;
	62573 :	00111100110110001000011010100100;
	62572 :	00111110001011010000110011001110;
	62571 :	00111110001001001110111011101100;
	62570 :	10111011001000101001011110101110;
	62569 :	00111100110110101111001000100110;
	62568 :	00111110001100101111011100001010;
	62567 :	10111110011101100001110100001101;
	62566 :	10111101000011101000000000011000;
	62565 :	00111110100001001000110111100001;
	62564 :	00111101001000000100110111111010;
	62563 :	10111101010010110100110100011100;
	62562 :	10111110001011001100111110111110;
	62561 :	10111100011110010111100000001101;
	62560 :	10111101011100001011010101000111;
	62559 :	00111101101011010000001100001000;
	62558 :	10111101101010000110010100001110;
	62557 :	10111110001101100111111110100111;
	62556 :	00111101110011010101100000010100;
	62555 :	00111110100110101001110011101110;
	62554 :	00111100100101010010000011011111;
	62553 :	00111101001011001101000001110110;
	62552 :	10111101011001101100001010110001;
	62551 :	10111101101001001001110110100000;
	62550 :	10111110010001110100000000111111;
	62549 :	10111100111111111001101111000101;
	62548 :	00111101011011001000110010001101;
	62547 :	10111110001110001110010011010101;
	62546 :	10111011110000110000010111110011;
	62545 :	10111101111011011010110001111010;
	62544 :	00111100111101111100001011111111;
	62543 :	00111101001111011011101100000111;
	62542 :	10111110000101010000011010010101;
	62541 :	10111101011111011011000111010001;
	62540 :	00111110010010000000010000010101;
	62539 :	10111011111110110110000010101111;
	62538 :	10111110110001111000000111011000;
	62537 :	10111101010000110110110100000110;
	62536 :	10111101101011101001111100100111;
	62535 :	00111110110001101011111100001001;
	62534 :	10111110101001011100100100111000;
	62533 :	10111011011000111001110110110010;
	62532 :	10111011101000001100010010101001;
	62531 :	00111101011101100001101011111010;
	62530 :	10111110000000011010000101110000;
	62529 :	10111110000000000111000011001011;
	62528 :	00111100111110010111000001011100;
	62527 :	00111110000101001000010000011010;
	62526 :	00111101100010010011010010111110;
	62525 :	10111100110100101101001001001000;
	62524 :	10111110111011110101001000101101;
	62523 :	00111101010010011100100110111000;
	62522 :	00111101000101110000001001001101;
	62521 :	10111100001011100000001000101010;
	62520 :	10111110100111011001111000010101;
	62519 :	10111110000001010010010000100010;
	62518 :	10111101100001001011011110101010;
	62517 :	00111110010011000110110010010001;
	62516 :	00111110110001101101000111000100;
	62515 :	10111110111010011111110011000111;
	62514 :	00111101011011010100111010011101;
	62513 :	10111101000101000100010000000011;
	62512 :	00111100111101110100001110000001;
	62511 :	10111110001100001110001111101101;
	62510 :	10111011110100000110111000000000;
	62509 :	00111100100010001000010011111000;
	62508 :	10111110001101011010111101000011;
	62507 :	00111100100010010100011110010011;
	62506 :	10111101011100111101101011100110;
	62505 :	10111110001100011011110011011010;
	62504 :	10111110001100101011101000000101;
	62503 :	00111110101100000110000101110101;
	62502 :	00111110100000011010101111110111;
	62501 :	00111100000100011100100011010111;
	62500 :	10111101101100101101111000011000;
	62499 :	10111101100111010011111101110111;
	62498 :	00111110001001001001110001010110;
	62497 :	00111110100000010100110100001100;
	62496 :	00111110010010110001100101010001;
	62495 :	00111101100110011110100001111110;
	62494 :	10111100011100010101111101101010;
	62493 :	00111100111101010011101001000000;
	62492 :	10111101011100111111010101011000;
	62491 :	10111110100010111000110110100101;
	62490 :	10111110100110111000100010000100;
	62489 :	10111100100100001110110111111001;
	62488 :	10111100110100101010010000001101;
	62487 :	00111110100101111111010100001101;
	62486 :	10111110001011000000111101000001;
	62485 :	10111101110011111101000101010010;
	62484 :	00111110000010100000100111101101;
	62483 :	10111110000101100010110001101000;
	62482 :	10111101000100110100000011001000;
	62481 :	10111011101110000110010100001011;
	62480 :	00111101010011000110011010111000;
	62479 :	10111011000110100000011011010100;
	62478 :	00111101110111101010110010110010;
	62477 :	10111100111000101101001001011000;
	62476 :	10111100100100010101011110111111;
	62475 :	10111101101000001111000010100001;
	62474 :	00111110001001001110100000000000;
	62473 :	00111110011111100001100101101011;
	62472 :	00111110001001000100010001101001;
	62471 :	00111110011010111100100010110010;
	62470 :	10111110010001101000011001111010;
	62469 :	00111101011011100110110101100011;
	62468 :	00111101011111111001010100011010;
	62467 :	00111110100110010101010010100110;
	62466 :	00111101110110110110010101000001;
	62465 :	00111010110100100000010101101001;
	62464 :	00111010110011101001010001100110;
	62463 :	00111101101010101001101110000100;
	62462 :	10111100101001110110001100100111;
	62461 :	00111110000101000100010100001101;
	62460 :	10111101110010101011000011100110;
	62459 :	00111011101011100101111100001001;
	62458 :	10111101001011100101101010111110;
	62457 :	00111101100000000011111100111001;
	62456 :	10111110010011000110101110100100;
	62455 :	00111101000111101011110011110010;
	62454 :	00111101100010110001110110010011;
	62453 :	00111110000100100101001101110111;
	62452 :	00111100110111010011000001010111;
	62451 :	10111101101100101000101000011000;
	62450 :	10111101111111110111000110111000;
	62449 :	00111100100110110010101100001110;
	62448 :	00111110000001000100101111100111;
	62447 :	10111101111011010111000001110101;
	62446 :	00111110000011110010000100000000;
	62445 :	00111101001010000000001110111100;
	62444 :	00111010101001000101011100110111;
	62443 :	10111101010100100111001011000100;
	62442 :	10111101000000100001000001011001;
	62441 :	00111110000111101111011000100110;
	62440 :	10111101000010010111001100011100;
	62439 :	10111101111101001111011110101101;
	62438 :	00111011000010110010111110011000;
	62437 :	00111101100101110110000100101010;
	62436 :	10111101000011001011001011001110;
	62435 :	00111110000001110001000101111001;
	62434 :	10111101100100110000101110010001;
	62433 :	10111101011110010010011010001000;
	62432 :	00111100010011010101000001010010;
	62431 :	00111010000101100011110111000111;
	62430 :	10111101110001010100101010010110;
	62429 :	10111101110010110100110001110100;
	62428 :	00111101101100010111111000110011;
	62427 :	10111110010000101110111100000001;
	62426 :	00111101010010001111111111010100;
	62425 :	10111110010110000000111010111001;
	62424 :	00111101100000101000110010100110;
	62423 :	00111101111010000110011000010011;
	62422 :	10111101100000101001001001110101;
	62421 :	00111100111010000000100010010110;
	62420 :	00111110000110101011011111011011;
	62419 :	10111100111010011110000010010010;
	62418 :	10111101111001100101111101111111;
	62417 :	00111110011001100000100111011011;
	62416 :	00111011101110101001000101000111;
	62415 :	10111101101000000110001111010111;
	62414 :	00111101110101101101011100010110;
	62413 :	10111101010111111000101010001101;
	62412 :	10111101110001111101101000101010;
	62411 :	00111110011111111101011010000000;
	62410 :	10111110001000101110101111000011;
	62409 :	00111110010110001010010110111001;
	62408 :	00111101010110011101110000011101;
	62407 :	10111101111111010100000100110111;
	62406 :	10111101000100111111001011010010;
	62405 :	00111100011010001100011010111110;
	62404 :	00111101101100011010100111101000;
	62403 :	10111110001111011110010001101100;
	62402 :	10111101001011010001001011010010;
	62401 :	00111101011101101010101101011111;
	62400 :	10111110100110100100111111011010;
	62399 :	00111110010111110011100001010010;
	62398 :	00111110000100010011100100101101;
	62397 :	10111110000001001011011111001001;
	62396 :	10111101110100100010110011101000;
	62395 :	00111100101101110010010011000001;
	62394 :	00111101101101111110011110011100;
	62393 :	00111101011111001111010110001011;
	62392 :	00111101010010111111000110001011;
	62391 :	00111110011010101100110110010000;
	62390 :	00111100110100001101101101110111;
	62389 :	00111100111011001001101101111011;
	62388 :	10111110000001011010000101100101;
	62387 :	00111101000111011111100111110011;
	62386 :	10111100100011010111111100011001;
	62385 :	00111101110010000100011001101111;
	62384 :	10111110100011010111111100100111;
	62383 :	10111101100000001101011011001010;
	62382 :	10111110010011000101000111001001;
	62381 :	00111101000100110010001000110011;
	62380 :	00111101110011001000110000001000;
	62379 :	00111100001100111110001010001000;
	62378 :	10111101011010111110101000110100;
	62377 :	00111101101010010101100010000001;
	62376 :	00111110011100110100111100000011;
	62375 :	10111110001001110110000010111010;
	62374 :	10111110000111010110111111011101;
	62373 :	10111101000011110101100100111110;
	62372 :	00111110000001100001111111001111;
	62371 :	00111101000001000010100111101100;
	62370 :	10111101000011010011100100000101;
	62369 :	10111101001100011011000101111101;
	62368 :	10111110100011011110110001100101;
	62367 :	00111110100000101000100110100011;
	62366 :	10111110010011011101011001110111;
	62365 :	10111110001000110011010000100100;
	62364 :	00111101001010010000110100101111;
	62363 :	00111101111000011010111001100010;
	62362 :	00111011110100101001011000001101;
	62361 :	10111101101111001100100001001101;
	62360 :	00111101100001010100100100001101;
	62359 :	10111101111110111111000011000000;
	62358 :	10111101011011111001111111010000;
	62357 :	00111110000111110111010000001011;
	62356 :	00111101010011001100110111110000;
	62355 :	00111101101000101110000001101011;
	62354 :	10111101100101111000000010110101;
	62353 :	00111110000010110011000111001010;
	62352 :	00111101001011010001100000111100;
	62351 :	10111110000001110100111010010000;
	62350 :	10111110100001000110011001100101;
	62349 :	10111110000110110010101000000110;
	62348 :	00111101101111000011100100110011;
	62347 :	10111100001001000111111010000000;
	62346 :	00111110001011111110001010010111;
	62345 :	10111100000111001110001001111100;
	62344 :	00111110101010100111011101010000;
	62343 :	10111110011011011111100110111000;
	62342 :	10111101110110010111011000101100;
	62341 :	10111110010001111111100100110000;
	62340 :	10111110001010000111100011100010;
	62339 :	00111101110101110011101100111011;
	62338 :	10111110000111000011111001000110;
	62337 :	10111110101011111000011110010010;
	62336 :	00111100010000110000110101101011;
	62335 :	00111110010001001111101001000001;
	62334 :	00111110001110110010001000111100;
	62333 :	10111101101010100101100101111101;
	62332 :	10111101100100101111110001010100;
	62331 :	00111110100110101110001100100101;
	62330 :	00111110000010111001111001101011;
	62329 :	00111110000110000111100110010101;
	62328 :	10111110011010000101001110111111;
	62327 :	10111101001111101010111100011110;
	62326 :	10111101110011101101000010000011;
	62325 :	00111100111010101011111111100111;
	62324 :	00111101110011100011100100011011;
	62323 :	10111110100110011110110100100001;
	62322 :	10111101101001100111100011100101;
	62321 :	00111101101000100001011010101000;
	62320 :	10111101001011101100111101001100;
	62319 :	00111110101110001100011001110011;
	62318 :	00111101101000010000101110001010;
	62317 :	00111101010000000011111000000111;
	62316 :	10111100101000101101110101011110;
	62315 :	00111110011101011011000101000111;
	62314 :	00111101111001010011101001010011;
	62313 :	10111110100010111010101100111101;
	62312 :	10111110011001010101101111111001;
	62311 :	00111100100010111100101011010010;
	62310 :	10111110100000000110110011000001;
	62309 :	00111110010000111010100010100110;
	62308 :	00111110001010011100000001110000;
	62307 :	00111101010010110100111100010111;
	62306 :	10111100011100100011001001101000;
	62305 :	00111101100001110001101100011010;
	62304 :	00111001111111010011000100011110;
	62303 :	00111101000101110111011101010010;
	62302 :	00111101110001101011010010001000;
	62301 :	00111101010001001001000110100001;
	62300 :	00111101011100010100100100010100;
	62299 :	10111101100101011111001011100110;
	62298 :	00111110011100000001011110001100;
	62297 :	00111101110111010001010101010011;
	62296 :	10111110001101110110010101101101;
	62295 :	10111110001111001110110110100110;
	62294 :	00111011101111011101001001010101;
	62293 :	00111001100110111101100010100110;
	62292 :	10111110000000100101100010110100;
	62291 :	00111100111010010110110010111111;
	62290 :	10111110010001101111111100000000;
	62289 :	10111100101011001111001110011000;
	62288 :	00111101100011010110101110011100;
	62287 :	00111101011011001001000001010010;
	62286 :	10111100010101101010110011101001;
	62285 :	10111110010000011001110010110100;
	62284 :	10111101011011000001110111101010;
	62283 :	00111101000101110010111000111010;
	62282 :	00111101001010011011000000111001;
	62281 :	00111110010001110010000101010011;
	62280 :	00111110100110010011111000001010;
	62279 :	00111101111101100110101000001011;
	62278 :	00111110010010111001111101010100;
	62277 :	00111101111010001100100100000011;
	62276 :	10111110000010010011110101100001;
	62275 :	10111110011111111111100111110110;
	62274 :	00111100110100000001100001001110;
	62273 :	10111101110011000110001000110110;
	62272 :	10111011011111001110100000000011;
	62271 :	00111110010010011001010111001011;
	62270 :	00111110011001010101101001111011;
	62269 :	10111110001001001101101010110000;
	62268 :	00111101001001110110110101001101;
	62267 :	10111101111000110110100010001111;
	62266 :	00111010100000111100101001010101;
	62265 :	00111100101010111001111011111011;
	62264 :	10111101001010001011001000100101;
	62263 :	10111110000011011100010000110010;
	62262 :	10111101110100111011010010101011;
	62261 :	00111011011110011111000111011011;
	62260 :	10111101100011011000110110110110;
	62259 :	00111110011001000001010110100010;
	62258 :	00111110000110100010010000001100;
	62257 :	10111101100000111100001111111001;
	62256 :	00111101101100110101010000000111;
	62255 :	10111101110111100010100011011111;
	62254 :	00111110000001110000111010011110;
	62253 :	10111101101110010010000100100100;
	62252 :	00111110110100010000101011110011;
	62251 :	10111110100111111111101110101110;
	62250 :	10111101010100000101001100010011;
	62249 :	10111100000100111110110000000000;
	62248 :	00111101001001101010010100101101;
	62247 :	00111110010011111001110110101001;
	62246 :	00111101011011101110010101010001;
	62245 :	00111101101001100011111100111101;
	62244 :	00111110001010111001101001010010;
	62243 :	10111110000100101110100010101010;
	62242 :	00111110001010010101101111011100;
	62241 :	10111100101010010011101010101101;
	62240 :	10111101110011100111010000010010;
	62239 :	00111110000011011111111011001011;
	62238 :	00111101111011110110010111010010;
	62237 :	00111101100110100100110111000011;
	62236 :	10111101101011010111010101101001;
	62235 :	10111110010011110011101011000110;
	62234 :	10111110010111111101101011110101;
	62233 :	10111100100100011110101101101001;
	62232 :	10111110010111111100001100101100;
	62231 :	10111101000110110000101011110110;
	62230 :	00111110010110110000100110000001;
	62229 :	00111101101000111010010010101001;
	62228 :	00111101111100111011011010110010;
	62227 :	00111101100111010111010011000000;
	62226 :	00111110000101000011110100100011;
	62225 :	00111101101110000111001010000110;
	62224 :	00111011111011100100010110000010;
	62223 :	10111100000111001111110110000101;
	62222 :	00111110001111011011000010111111;
	62221 :	00111110100011000011100110011000;
	62220 :	00111110000001001001100011001101;
	62219 :	00111011000110111111101011011110;
	62218 :	10111110010010100100001010001100;
	62217 :	00111101110100011100001011001101;
	62216 :	00111100110100100000101000100111;
	62215 :	00111110100100000101001000011110;
	62214 :	00111101000010101110001101001100;
	62213 :	00111101001111101001001010111010;
	62212 :	10111101100000111101110010000000;
	62211 :	10111110001100011001001000111111;
	62210 :	00111110000100001011111011010010;
	62209 :	00111110000101111100010100010111;
	62208 :	10111101100001101100010111011001;
	62207 :	00111101100111101111100011101100;
	62206 :	10111100101101000111111101110011;
	62205 :	00111101001000010001111001010111;
	62204 :	10111100010111010001111011101010;
	62203 :	00111101100011110101011111000100;
	62202 :	10111100101000011100100101010000;
	62201 :	00111110001000011011001101011110;
	62200 :	10111101110010101010101011101111;
	62199 :	10111110000100101000011111101010;
	62198 :	10111100011001001001110001110000;
	62197 :	00111101111110001110000011100101;
	62196 :	00111101110111110111000000010011;
	62195 :	10111101100010111001110101111011;
	62194 :	10111100100010111001101011100011;
	62193 :	00111001111101110100101001010110;
	62192 :	00111011110111111110010001101001;
	62191 :	10111100100010100110110101100000;
	62190 :	00111101101101010111100100000111;
	62189 :	00111101110100001011001001101011;
	62188 :	00111101100101001010101111011101;
	62187 :	00111101101111100010111100110010;
	62186 :	00111110111010001000110001001100;
	62185 :	00111101100110010110011111010111;
	62184 :	10111101111010000100100111101100;
	62183 :	00111011110101100001110110000100;
	62182 :	00111100011000011101010010000001;
	62181 :	10111110100001000011000001000001;
	62180 :	00111011100100110100010111010101;
	62179 :	10111101101110001000001001101110;
	62178 :	00111101100001100001011111001101;
	62177 :	10111110010011111110010011100000;
	62176 :	10111101110100110000100000101000;
	62175 :	00111110001000110111100000000010;
	62174 :	10111101001111011101010001100000;
	62173 :	10111101111000100111000111110010;
	62172 :	00111101010101000100111011001011;
	62171 :	00111101000000111100110110101011;
	62170 :	00111101101000110011010101011010;
	62169 :	10111101000011001011001010100110;
	62168 :	00111101100100001111000001101100;
	62167 :	10111110001110110100001011000101;
	62166 :	10111101110100000101001001011101;
	62165 :	00111101001111010011101100001110;
	62164 :	00111101111000101011111111001000;
	62163 :	10111100101101010111010011100000;
	62162 :	00111110010010110000000010011111;
	62161 :	10111101011001100001001000110100;
	62160 :	10111101101001111101010001001010;
	62159 :	10111100011100010100110001110010;
	62158 :	10111011000110011011100001010100;
	62157 :	00111110010111101011010001101110;
	62156 :	10111101100000111101110010000101;
	62155 :	10111101110011001100010111101100;
	62154 :	10111101110111101100101101000000;
	62153 :	00111101001111101011100111111010;
	62152 :	00111110100010010101101111100100;
	62151 :	10111110001011011111100010110010;
	62150 :	00111101100011101011100011010101;
	62149 :	00111100101111010010110000000110;
	62148 :	10111110100000011111000001010000;
	62147 :	00111110001111001001011100011011;
	62146 :	00111101111100101001100100110010;
	62145 :	10111101100100011001001010010000;
	62144 :	00111110000011000010100010101110;
	62143 :	00111101010111110111100010110101;
	62142 :	00111110000101101001100101001100;
	62141 :	00111101111000010111100000100010;
	62140 :	00111101101001010111101101001001;
	62139 :	00111110100010111011011011001001;
	62138 :	00111101000110001111111011000110;
	62137 :	10111101100101101010110111000100;
	62136 :	00111110010101100011001100101010;
	62135 :	10111011111000110101000000101100;
	62134 :	00111110010111101011010111111000;
	62133 :	00111100110001110011010110101100;
	62132 :	10111101101010110010001000111110;
	62131 :	00111100000101000110100101000110;
	62130 :	10111101110101101100000011011001;
	62129 :	00111101001010100111001111001111;
	62128 :	00111110000111101111110000101100;
	62127 :	00111011010000000000111101010000;
	62126 :	10111101111110001110101011010111;
	62125 :	00111101101010100010011110010101;
	62124 :	00111110100110000110110001000111;
	62123 :	00111101100010000110100111010011;
	62122 :	10111110101110000110001001111000;
	62121 :	00111110011100010001000011000111;
	62120 :	10111110011010100010110011001010;
	62119 :	10111101100110001011011101101001;
	62118 :	10111101100111011100111010101011;
	62117 :	00111110000010010010111111110110;
	62116 :	10111110001101010001110011101111;
	62115 :	00111101010001010000111110011100;
	62114 :	10111101101100010010011111100010;
	62113 :	10111110001111011111000101011001;
	62112 :	10111101100010111100001001111000;
	62111 :	10111101101011101010000110111011;
	62110 :	10111101110100100011111001100111;
	62109 :	00111101111110001100100010010001;
	62108 :	00111011011100000111100010101010;
	62107 :	10111101101000001010111111010010;
	62106 :	10111100100110000011000010111010;
	62105 :	10111101010101001000100101110110;
	62104 :	00111100010101001100111100110000;
	62103 :	00111101011100110100100001011111;
	62102 :	00111110001101100101110010101001;
	62101 :	00111101100001110011100001100001;
	62100 :	00111101110111001101110010000111;
	62099 :	10111100100001101001110000001110;
	62098 :	10111101110101011111000011101011;
	62097 :	10111101011011000100011111110001;
	62096 :	10111100100011000001011010111111;
	62095 :	10111110000001000011000011101100;
	62094 :	10111011010111101000100000010011;
	62093 :	10111101001000111110010111001000;
	62092 :	10111101111010011110000111110001;
	62091 :	10111110101010101001011100000100;
	62090 :	00111101100101000100000110010101;
	62089 :	00111110100101001011011010110000;
	62088 :	00111110001010001110010110011111;
	62087 :	00111110010111000001101010111001;
	62086 :	00111110001101100000011011000110;
	62085 :	10111110001000001001001111101100;
	62084 :	10111110001001010101110100101101;
	62083 :	00111100110110000110010001011011;
	62082 :	10111100001001011000011001100111;
	62081 :	10111110001110110010111000010010;
	62080 :	10111101001111111111010110111100;
	62079 :	00111101110100110001000001000101;
	62078 :	00111110011001111100000100100110;
	62077 :	10111101001110101111100111000110;
	62076 :	10111011111100000000010110111000;
	62075 :	00111110001000010111001010100000;
	62074 :	10111011010110001000100000011110;
	62073 :	00111110000001011001100010110100;
	62072 :	00111110010101111101001010111011;
	62071 :	10111110001010000100010111100101;
	62070 :	00111101001101111111000010010001;
	62069 :	00111100101100001001010010011011;
	62068 :	10111110000000101010010000100111;
	62067 :	00111110000100110111010111101010;
	62066 :	10111110000001101101000110000101;
	62065 :	00111101010010000001100111111011;
	62064 :	00111110110010000001010101001001;
	62063 :	00111101011000111011101001100101;
	62062 :	10111100111100100011011111100101;
	62061 :	10111110100110100001110111000010;
	62060 :	10111100110111110010110100110110;
	62059 :	00111101100000000001101101001010;
	62058 :	10111110010110010110111100010010;
	62057 :	10111101001000111001011101000000;
	62056 :	10111101010000110011010010011101;
	62055 :	10111101100011011101100000101000;
	62054 :	10111110001010100011000001101001;
	62053 :	10111110001101110100110001110000;
	62052 :	10111110000111010001111110100101;
	62051 :	00111101000010011100011111011000;
	62050 :	10111100100110010011110010111000;
	62049 :	00111100110000101111010100001010;
	62048 :	10111100000000111000110100100101;
	62047 :	00111110001101000100001001111111;
	62046 :	00111101001101100100100011010011;
	62045 :	10111101110011001111001010000001;
	62044 :	10111101110100100011011111011101;
	62043 :	00111101101110010101100001001010;
	62042 :	10111100110100101110001100010111;
	62041 :	00111110000011011011100100010100;
	62040 :	10111110010000100011101111011011;
	62039 :	00111101111110010000010000100111;
	62038 :	00111101010010000101001110100100;
	62037 :	00111110100101011010100100100100;
	62036 :	00111110011001010010000000101100;
	62035 :	00111110010000001010101110100100;
	62034 :	10111110001000010100001011011110;
	62033 :	10111101110100001111111000101001;
	62032 :	00111110010100111100110000110100;
	62031 :	00111101101011000101100101000010;
	62030 :	00111101010100010011110100101000;
	62029 :	10111101100011001111001001011100;
	62028 :	10111101011011111100110100101011;
	62027 :	10111101101000101110100110001000;
	62026 :	10111110011100100011101010000111;
	62025 :	00111110010100001110010100010001;
	62024 :	00111101100100101110000000110001;
	62023 :	00111110000001010110000001010001;
	62022 :	10111101101101011101101111101001;
	62021 :	10111101011011101111011100000101;
	62020 :	00111101011010110010110111000101;
	62019 :	10111110001000110000001101001001;
	62018 :	10111101000001110001110001110100;
	62017 :	10111101110011001011111110100000;
	62016 :	10111110100000111111001101111011;
	62015 :	00111101001001110110011100111100;
	62014 :	00111100110000010110100110010110;
	62013 :	00111101101100011111000100100101;
	62012 :	10111110000000110111111000000110;
	62011 :	00111110001100101100000111010011;
	62010 :	10111101100010100101111111010100;
	62009 :	00111110001101110100110011110011;
	62008 :	10111110001001100100101001000100;
	62007 :	10111101101110101000110001100101;
	62006 :	00111101100110111011010000110011;
	62005 :	00111101101101100010010100010000;
	62004 :	10111100001100010000001110101110;
	62003 :	10111101100111001010111000101010;
	62002 :	00111101001110010010111100110100;
	62001 :	00111110111010011111011110011100;
	62000 :	10111100011011011001101010111101;
	61999 :	10111110010100010001100110101000;
	61998 :	00111101110010101100001000001110;
	61997 :	00111101111100001110001101011010;
	61996 :	10111110001010011001010000010111;
	61995 :	00111101101111010000010001011111;
	61994 :	10111101000101001000111110001001;
	61993 :	10111110000011110111000110011010;
	61992 :	00111101100110000100101110011100;
	61991 :	00111101111110001001010100010010;
	61990 :	00111101001101111110101011010111;
	61989 :	10111100000001011111101110001100;
	61988 :	00111110100000010110001010001001;
	61987 :	00111110010101101101011001100000;
	61986 :	10111101000011101101100001101110;
	61985 :	10111101011110111000101010111111;
	61984 :	00111101100001111101101011111101;
	61983 :	10111101010111100101100101010101;
	61982 :	00111110000111000100011001001000;
	61981 :	10111110010000010101010111010110;
	61980 :	00111110011000111101111101101010;
	61979 :	10111011000110010110100010101000;
	61978 :	10111100110010111100110101000111;
	61977 :	10111101101100010001001000001011;
	61976 :	00111100101010111000100111110110;
	61975 :	10111101100011001011110101100111;
	61974 :	10111101010001001010000111111000;
	61973 :	00111101101101011000000101101000;
	61972 :	10111100101011000001101110111010;
	61971 :	10111101110011110101000001001100;
	61970 :	10111110010010011011000111101100;
	61969 :	00111110100111011100111001111000;
	61968 :	10111101110010011100101110010011;
	61967 :	10111100101010110110011110001110;
	61966 :	00111110101001010111011011000101;
	61965 :	00111100111111100110101100011110;
	61964 :	00111101001000111011000100000011;
	61963 :	00111100110001010101011001110010;
	61962 :	10111101111001111111010011000000;
	61961 :	10111101011100010000101101111000;
	61960 :	10111101111001011001001010111101;
	61959 :	10111110100111010000010011001101;
	61958 :	00111101011001000001110001010100;
	61957 :	00111101010110101110101000011010;
	61956 :	00111101001010111001011011100111;
	61955 :	00111110101000100010110000101100;
	61954 :	00111110001111111110111111000000;
	61953 :	00111101000000011111001110101111;
	61952 :	10111101110011010111010000010110;
	61951 :	00111101100000000001010010000011;
	61950 :	00111110000110110010111110111001;
	61949 :	10111011001011010110010100000111;
	61948 :	10111100101000110101001111100001;
	61947 :	10111110110001111100001100010111;
	61946 :	00111110001010110100000100100110;
	61945 :	00111110011101101101011111010100;
	61944 :	00111110000100010001011001100110;
	61943 :	10111101011010001001111001011111;
	61942 :	00111101001010100110101101111001;
	61941 :	00111100000011100101010011010000;
	61940 :	00111101010100000011010010011011;
	61939 :	10111100001111111111110100011011;
	61938 :	10111110010110110101000011111111;
	61937 :	00111101000111001001101000011000;
	61936 :	10111101111010110011100101000111;
	61935 :	00111101010011010011000111111000;
	61934 :	00111100111010100100000110000101;
	61933 :	10111100111110010001111011011101;
	61932 :	00111110000000110100001101110000;
	61931 :	00111101100010001001001101100111;
	61930 :	00111110001111011010111010000110;
	61929 :	10111101001111000101000001000001;
	61928 :	10111101101100011011011101110100;
	61927 :	00111110001101011011000111101111;
	61926 :	10111100110101001011010100000110;
	61925 :	00111110010110100101001101001011;
	61924 :	10111110001010100100001001100101;
	61923 :	00111011011010110000001011011011;
	61922 :	00111101000011001000100110001111;
	61921 :	10111110100000001000101011101111;
	61920 :	10111110001111010100101000010101;
	61919 :	00111110010111110111010011100011;
	61918 :	10111101100100101000111011100011;
	61917 :	10111101101000110100010110100001;
	61916 :	10111100000100100111101111010001;
	61915 :	10111100010010111100101111101111;
	61914 :	10111101101011000001000001100001;
	61913 :	00111101111101110001011010100010;
	61912 :	10111101011001011011101001001011;
	61911 :	00111110000111111110011110110010;
	61910 :	10111110100000100011011000001001;
	61909 :	00111110010110000001110001111110;
	61908 :	10111110011001111100100001000011;
	61907 :	00111110010010110111010100010111;
	61906 :	10111110010011010110010001010100;
	61905 :	10111101100111101111111000111000;
	61904 :	00111101010111100100111110011011;
	61903 :	10111110010111011011000000001100;
	61902 :	10111101000011111101101111010001;
	61901 :	00111101100100100111110110101101;
	61900 :	10111110001011100111101000011111;
	61899 :	00111110010011011010101110100001;
	61898 :	10111011010000000011101011010011;
	61897 :	10111101100101001110101011011111;
	61896 :	00111101010000001011010010111110;
	61895 :	00111000111100001001011101110101;
	61894 :	10111110000100111100111111011101;
	61893 :	00111011100100000011110001011101;
	61892 :	10111101100001101110100000110101;
	61891 :	10111101010101011100001110000100;
	61890 :	00111100101110001101101100011001;
	61889 :	00111101100101000101001100010001;
	61888 :	10111100101101101100101101111111;
	61887 :	10111101010010000100011011001111;
	61886 :	00111101011110101110010101100001;
	61885 :	00111011000100110100111001001011;
	61884 :	10111100011001010110001100010100;
	61883 :	10111110001000001010100111100010;
	61882 :	00111101110110010100010000100001;
	61881 :	10111100100111010011101011011001;
	61880 :	00111101010010011011110000000101;
	61879 :	00111101011011010100101100011010;
	61878 :	00111101100010110010011010110101;
	61877 :	10111011111111100001000101001000;
	61876 :	10111101000100000110010001100011;
	61875 :	00111110110000011110100000011011;
	61874 :	10111101110000011010000001100111;
	61873 :	10111100110001010010100101011000;
	61872 :	00111101000010000001110100011001;
	61871 :	00111110000001111100100011000011;
	61870 :	00111101110110001110111000110010;
	61869 :	10111101111101101110111010110000;
	61868 :	00111001100011000001110010011010;
	61867 :	00111101100111000010100000001011;
	61866 :	00111110001111000101110110001010;
	61865 :	10111100010100001001100101101000;
	61864 :	00111101010111110111001010110000;
	61863 :	10111101101011011100111110001001;
	61862 :	10111101110011111001000010110010;
	61861 :	10111101101111101111011000010110;
	61860 :	10111101100010110010010100101000;
	61859 :	10111101010001010101001111010100;
	61858 :	10111110011111010001100001000110;
	61857 :	10111110001000100000011000101111;
	61856 :	10111110000000110001001111101111;
	61855 :	00111110010110101011010011001001;
	61854 :	10111110000110000100101111100100;
	61853 :	00111110010100100010011110000001;
	61852 :	10111110001001011000100000111011;
	61851 :	10111101110100111100010000010001;
	61850 :	10111101000001111000000111110000;
	61849 :	00111110101000101110110001111101;
	61848 :	00111110000101000010001110110110;
	61847 :	10111110100001101110101101101110;
	61846 :	00111101110110100000010010000110;
	61845 :	10111110100000000000111001000000;
	61844 :	00111110100110001100100111111101;
	61843 :	00111101110011001001010111101011;
	61842 :	00111100110110001011001001010001;
	61841 :	00111101101111000100011000101100;
	61840 :	00111110000010111010011000110001;
	61839 :	00111011001010011101100000110001;
	61838 :	00111100000011010000000000011011;
	61837 :	10111110011110111000111111000101;
	61836 :	10111101001011010000101111010001;
	61835 :	10111110001110111111101100101101;
	61834 :	00111101000001110110001111101100;
	61833 :	10111110010010101111101110110101;
	61832 :	10111101100100100111001101100100;
	61831 :	10111110001000001101000011011010;
	61830 :	00111101010000110001110000011110;
	61829 :	10111100000010001101100010110101;
	61828 :	00111101100000101011010110100100;
	61827 :	00111110000111001111000110100011;
	61826 :	10111110010000001100011101000011;
	61825 :	00111101000101111111100000010111;
	61824 :	10111110001001101100010000110100;
	61823 :	00111110000100111011011100001101;
	61822 :	10111100111011111010000010110110;
	61821 :	10111101100011101011011100111001;
	61820 :	10111101100011101000111010100100;
	61819 :	10111110000010111011000010001000;
	61818 :	10111110001001000011110111011001;
	61817 :	10111101110000001011101101100010;
	61816 :	00111110000110010110101010110110;
	61815 :	00111101111111110000010110111010;
	61814 :	00111100101100111111010111100011;
	61813 :	10111101001110011111110110001010;
	61812 :	10111011010000000000111000100000;
	61811 :	10111101111101100110111000100010;
	61810 :	00111101011110000001010001011011;
	61809 :	10111101110111010010101011000100;
	61808 :	00111101111000001000000000010111;
	61807 :	00111101101011011111011001111000;
	61806 :	00111110100010000100101011110100;
	61805 :	10111100011010100111110111011110;
	61804 :	10111101101001111011101011010100;
	61803 :	00111101110001001000011100000111;
	61802 :	00111101000101100000110010101000;
	61801 :	00111110001111000111111010100000;
	61800 :	00111110100100100101110100101010;
	61799 :	00111110001011010110100100100001;
	61798 :	10111011011111010000000001001011;
	61797 :	10111101000101001110010111111001;
	61796 :	00111101001110110100111111101111;
	61795 :	10111101110011000110000011101101;
	61794 :	00111101011011101111110111101111;
	61793 :	00111101000001010101110100101011;
	61792 :	10111100110110000000101101111000;
	61791 :	10111011011001000011110110010101;
	61790 :	00111100000110011011111110000110;
	61789 :	00111101011100110111110101000100;
	61788 :	00111101100101000011100000111001;
	61787 :	00111110101101111001111001010001;
	61786 :	00111110100110010010001011101001;
	61785 :	10111110001000100101101010111111;
	61784 :	10111110100011010100100111110000;
	61783 :	10111101001001001000001010111010;
	61782 :	10111011000111011010110011000001;
	61781 :	00111101000010011111100111100110;
	61780 :	10111101101100101000000001111001;
	61779 :	00111101010010101101100100101111;
	61778 :	00111101100001000000101100111100;
	61777 :	00111101100001000010010000010000;
	61776 :	00111110110100000101001000000011;
	61775 :	00111101011011001100100010011110;
	61774 :	00111100010110101010101100111110;
	61773 :	10111101001110011011010100001100;
	61772 :	00111110001110101000001010100000;
	61771 :	00111100101011001011101101101101;
	61770 :	10111110011000111011111111000110;
	61769 :	10111101110111011000100100100010;
	61768 :	00111110101010110101100110110110;
	61767 :	00111100110101000000010101101110;
	61766 :	10111101100101110001010010011100;
	61765 :	10111101000101100001010010100100;
	61764 :	10111101000110001011110001000111;
	61763 :	00111110010100110010000100001110;
	61762 :	10111110001100110100110101101000;
	61761 :	00111101111010011011110000100001;
	61760 :	00111110101010100000101001111101;
	61759 :	10111101111100000101000101101010;
	61758 :	00111100110100100101010100011100;
	61757 :	10111101101010101010011111010101;
	61756 :	10111110011100001001111000011011;
	61755 :	00111110000011110010100000001011;
	61754 :	10111110100000101000010100011011;
	61753 :	00111110001101010110011111110000;
	61752 :	00111110100001001010011100110011;
	61751 :	10111101010101011001011010001001;
	61750 :	00111101101010100111110100001000;
	61749 :	10111101101111101001110000111100;
	61748 :	10111110001110010011111110000000;
	61747 :	00111100111010010010111100000111;
	61746 :	10111110000010101101010111000110;
	61745 :	10111110110000111010100000100100;
	61744 :	00111100100000010111001111011001;
	61743 :	10111101101100111110100010100111;
	61742 :	10111110100100110001100110011101;
	61741 :	10111110000011001101011011000001;
	61740 :	10111100010000111100011011001101;
	61739 :	10111110000101010011110101010000;
	61738 :	10111101100011111111011001101000;
	61737 :	10111101100011011101101010111011;
	61736 :	10111101100111101111100001000100;
	61735 :	10111101010000000101010100110111;
	61734 :	00111101100100101011101110101011;
	61733 :	10111101000010000100000111011101;
	61732 :	00111110000011011001011010111111;
	61731 :	10111101101000101000010010011111;
	61730 :	10111101100000100011001101110010;
	61729 :	00111101100100101000110001000101;
	61728 :	00111100111111000001010110010001;
	61727 :	00111010111000111010000000100100;
	61726 :	00111101111000110000010010011010;
	61725 :	00111101110001011011111001101000;
	61724 :	00111110010101110010111101011100;
	61723 :	10111100110111101000011001001111;
	61722 :	10111110001111100110000011010010;
	61721 :	10111110001011100011101100101100;
	61720 :	10111101101000000111010100110111;
	61719 :	10111100000100010010001000011000;
	61718 :	10111101100111111110000001011000;
	61717 :	00111101011011010100101110010111;
	61716 :	10111110000111100010001101100110;
	61715 :	00111110000100100001111110000000;
	61714 :	10111101110111111101101010010010;
	61713 :	10111101001011100111101101110000;
	61712 :	00111110000101000100101100000000;
	61711 :	10111101001000011010010110101110;
	61710 :	10111101100000010111100100011111;
	61709 :	10111100111111100001101000100111;
	61708 :	00111101110001100100000010110110;
	61707 :	00111110000110110111000001110100;
	61706 :	10111110000011011010001111100101;
	61705 :	00111110000010001001110110110100;
	61704 :	10111010111000101001111101000110;
	61703 :	00111101111010101011101101100101;
	61702 :	00111110100110001000100101011001;
	61701 :	10111101011001000011010101100110;
	61700 :	00111101101110110110011001010000;
	61699 :	00111101111101110101100100101011;
	61698 :	00111101110110111100100110001000;
	61697 :	00111101010000010000011111100101;
	61696 :	00111110000101110111101000011111;
	61695 :	10111100101110111111010111010111;
	61694 :	10111101011001101100001101011000;
	61693 :	10111101101101000100001100010000;
	61692 :	10111011100101101001001011111001;
	61691 :	10111101010110110000100000011101;
	61690 :	10111100100000101000101011001000;
	61689 :	10111110010001011001001110010001;
	61688 :	10111110010110010100101111001110;
	61687 :	00111101110001011000101000011111;
	61686 :	10111100111010110100110100001010;
	61685 :	00111101111101101011000100111100;
	61684 :	10111100101110100010101110001010;
	61683 :	10111101110011001101010001101011;
	61682 :	00111101000101111010100101111101;
	61681 :	00111110010101010000111001011001;
	61680 :	00111100101001001011101100000011;
	61679 :	00111110010101010110110011001000;
	61678 :	00111100100111001110001001100111;
	61677 :	10111110000011010011000010111110;
	61676 :	10111110010111011101100000000011;
	61675 :	10111101110100000110001011100011;
	61674 :	00111110000110010100000101010001;
	61673 :	00111101111000011110001110000100;
	61672 :	10111101110101111000001101111110;
	61671 :	10111101110110011111000101100000;
	61670 :	10111101011111101111100000000011;
	61669 :	10111110100100101110110101010111;
	61668 :	00111101100111011010011100111001;
	61667 :	10111110011011110000111001101010;
	61666 :	10111101000110011000001110000011;
	61665 :	00111100101111111110110111010111;
	61664 :	10111011011001000110001001110111;
	61663 :	00111011001011010010011100101101;
	61662 :	00111110010011110011100001011010;
	61661 :	10111101000111001100000101100010;
	61660 :	10111101111101001010011010110010;
	61659 :	00111101100111110101010011011010;
	61658 :	10111101101011011000011011110000;
	61657 :	00111100110000110110101010000111;
	61656 :	00111101010101101000101100011011;
	61655 :	00111110000000101101100110101010;
	61654 :	10111011011110101101010000000100;
	61653 :	10111011101111101101111001110111;
	61652 :	00111101110000001011001100110100;
	61651 :	00111101100011001010001001001000;
	61650 :	00111101101011000100010100011001;
	61649 :	10111100111000001001110000000011;
	61648 :	00111101111001001101100001001001;
	61647 :	10111101111010110000000111001010;
	61646 :	10111110100101011001100100000011;
	61645 :	00111101000111011100110010111000;
	61644 :	10111110101101011000110111100010;
	61643 :	00111110000100110111010101011101;
	61642 :	10111100010000101010100111000101;
	61641 :	00111110000010110111001000110111;
	61640 :	10111110100001101101101101100111;
	61639 :	10111100000111001010110110010101;
	61638 :	00111110001100010011011001100000;
	61637 :	10111101100101010100110101011001;
	61636 :	00111011111110010000100100111001;
	61635 :	00111100100010010111110101000001;
	61634 :	10111101011101000110100011111110;
	61633 :	10111101100011100011001101001011;
	61632 :	00111101101000001100011000100000;
	61631 :	00111101110110110100001001110110;
	61630 :	00111101101110010001111100001011;
	61629 :	10111101011101010011010000000010;
	61628 :	00111101101111100001100011110011;
	61627 :	10111101100001100011000101111011;
	61626 :	10111110000001101001100011000110;
	61625 :	00111100110001000000111010011101;
	61624 :	10111101111010001100001001110101;
	61623 :	00111110000010010000101001001101;
	61622 :	10111100101001111101101101100111;
	61621 :	00111100000000111000111111011101;
	61620 :	00111110010010011111010101111110;
	61619 :	10111110010110000010010001100111;
	61618 :	00111101110111011001011001001011;
	61617 :	10111110001100010111010110010101;
	61616 :	00111101100011010111100010100110;
	61615 :	00111101010001101001010101010010;
	61614 :	00111110011111100111011100001000;
	61613 :	00111101010001110001110101000100;
	61612 :	00111110001110101000110001101100;
	61611 :	10111101100100010110010100000000;
	61610 :	10111110000011000000011110101111;
	61609 :	10111110000111011000010010001000;
	61608 :	00111110100110011111001101010110;
	61607 :	00111101111100110010110011100011;
	61606 :	00111101100100000100011100110111;
	61605 :	00111110100000101010111101101011;
	61604 :	00111101110001111000101011000001;
	61603 :	10111100101011010011000010000100;
	61602 :	00111101101111010011110000011010;
	61601 :	10111100000001101001101001011001;
	61600 :	10111110101101101000100100110101;
	61599 :	10111100111100110100001101101100;
	61598 :	10111101110100011001110000100110;
	61597 :	10111101100001011001001000000000;
	61596 :	00111110000101001001011011011100;
	61595 :	10111101101101011100111000101000;
	61594 :	10111110100111110011000100011101;
	61593 :	00111101101110110110111100001100;
	61592 :	10111101100111000001110000110100;
	61591 :	00111101010011101100111011010010;
	61590 :	00111110000001110101001110101101;
	61589 :	10111101001000111000111010010001;
	61588 :	10111101111011110011100000001000;
	61587 :	00111101111100101110110101110001;
	61586 :	10111101111101101111001101111010;
	61585 :	00111101010010010000111001101000;
	61584 :	00111101000011110101110001110011;
	61583 :	10111101100010101100110011111111;
	61582 :	00111110001001010100011100010000;
	61581 :	00111011100110101010110110111000;
	61580 :	10111110010000000110000101100111;
	61579 :	00111110101001100011001010001101;
	61578 :	10111110001110000110100101101110;
	61577 :	10111110010010000000011101000101;
	61576 :	00111101101111001110110100101010;
	61575 :	00111110001000100001100010110010;
	61574 :	00111110000000011001111100100111;
	61573 :	10111110100000110100000001101100;
	61572 :	10111100100101001000000111111100;
	61571 :	00111100110001000100010100110001;
	61570 :	10111100111010110010110100100001;
	61569 :	00111101011101101110000000111011;
	61568 :	00111101110100010010100100011101;
	61567 :	10111110010111011011111111111100;
	61566 :	10111110010110110100101100100010;
	61565 :	10111101100101010110100000000111;
	61564 :	10111101111011010010011110010100;
	61563 :	00111110100010001110100010101001;
	61562 :	10111110011001110011001101001111;
	61561 :	00111100001101101100111010010101;
	61560 :	00111101101011111000001111011100;
	61559 :	00111101100000001101001101011110;
	61558 :	00111101100110101110001111010101;
	61557 :	10111101110001110110111011011001;
	61556 :	00111101111001001100011001101100;
	61555 :	10111101101101010010011100011101;
	61554 :	00111100101001110010101110011010;
	61553 :	10111101110011101001000110001001;
	61552 :	10111110011010001100100001100110;
	61551 :	00111001110101001010010111001000;
	61550 :	00111101001100111001010100101100;
	61549 :	10111101011111101101010010110001;
	61548 :	00111101001001000110111111000000;
	61547 :	10111101111000011011010110111000;
	61546 :	10111101100011101011110110011111;
	61545 :	00111101010110101110010000111011;
	61544 :	00111101000101011011011011000010;
	61543 :	10111101011001101001010100100000;
	61542 :	10111101110011001111011111001000;
	61541 :	00111101100010110000001001111110;
	61540 :	00111110000000011011100001110111;
	61539 :	00111110111000110011011000101110;
	61538 :	10111110000000010000100110001100;
	61537 :	00111011101111000101001010010000;
	61536 :	00111101101111000011011001010110;
	61535 :	10111011101010110010100110011100;
	61534 :	10111110101000011100111010110111;
	61533 :	00111110000111101011011010110111;
	61532 :	10111110100010110111110000110101;
	61531 :	00111100100111001010011010011111;
	61530 :	00111011110111011000100010111000;
	61529 :	10111101111100100011100111011100;
	61528 :	10111101010100100010110001011011;
	61527 :	00111110010110001101010100111011;
	61526 :	00111101100000100001100000101111;
	61525 :	00111110000100100101111010000100;
	61524 :	10111110001010001110011010011111;
	61523 :	00111101101110101111010101011101;
	61522 :	10111110000001010101001001011101;
	61521 :	10111011010000111011110001100010;
	61520 :	10111101110100001011111000011010;
	61519 :	00111100100111001100100100111000;
	61518 :	10111101110000111000000011101000;
	61517 :	00111100100101000111100111110011;
	61516 :	00111101000101110001011000110100;
	61515 :	00111101011100000011000101011000;
	61514 :	10111101001001101000100001000111;
	61513 :	10111100010001000010001111010000;
	61512 :	10111100010111100110101101011100;
	61511 :	00111101110010101010100011110000;
	61510 :	00111110100000101111100111110110;
	61509 :	10111101010000011010001111110010;
	61508 :	00111100101101111001111000001010;
	61507 :	00111100100000000000001000101111;
	61506 :	00111110001000111100101011011111;
	61505 :	10111101110111110100011000011010;
	61504 :	10111110101100001011110011001000;
	61503 :	00111110011001111110010011000110;
	61502 :	10111101011111001111000011010010;
	61501 :	00111101110111100111010100101011;
	61500 :	00111110001101101010110010100000;
	61499 :	00111001111101111111010111011111;
	61498 :	00111101100011010110001010000001;
	61497 :	10111110000110011100011011011010;
	61496 :	10111110010111011000001101110010;
	61495 :	10111110010111110110010001001101;
	61494 :	00111101001110101010010110000111;
	61493 :	00111100000101010101111000110010;
	61492 :	00111101100011111100000100110111;
	61491 :	10111101110010110000111001001101;
	61490 :	00111100011000110001001110101011;
	61489 :	00111110110010111010001001101001;
	61488 :	00111110000001011101001110111011;
	61487 :	00111110010101011100011111011010;
	61486 :	10111101011010011000001111011101;
	61485 :	10111101110111010000111010010101;
	61484 :	10111011111011110111100110111111;
	61483 :	00111110101001010110101001001110;
	61482 :	10111101111101010001101111001011;
	61481 :	10111101111000010010000000111011;
	61480 :	00111101111111001100101001001000;
	61479 :	00111101110011011011010001100101;
	61478 :	10111110000111101010010000100100;
	61477 :	10111110000001001110011110100110;
	61476 :	00111110011001111001100001010000;
	61475 :	10111101100100100011010101100111;
	61474 :	10111101100010101001101001100010;
	61473 :	10111011001100110000010101110101;
	61472 :	10111101111011001000110001011000;
	61471 :	10111101001011010010100110001001;
	61470 :	00111100111011000100100001000000;
	61469 :	10111101000101010100010011011110;
	61468 :	10111110010010100011010011011100;
	61467 :	10111110010001011011100010110111;
	61466 :	00111100110111110011011101011111;
	61465 :	10111101101101110111011001011001;
	61464 :	10111110100000100001000010110101;
	61463 :	00111101000110101011111010000110;
	61462 :	00111101001001100110000000111100;
	61461 :	00111101100110000111101010110100;
	61460 :	00111101110001000011000001000000;
	61459 :	10111100101010111000101110011101;
	61458 :	10111100100001010110000110000010;
	61457 :	10111100001010100000001010100011;
	61456 :	10111101110100111100001100100011;
	61455 :	00111110001011101011010000110101;
	61454 :	10111101101101101110100111010001;
	61453 :	10111100100100011110111111000101;
	61452 :	10111101111101011010011101101110;
	61451 :	00111101101000001100011101011110;
	61450 :	00111100101011110010011100101011;
	61449 :	00111011111110101010110000100011;
	61448 :	10111101111100010110100100110011;
	61447 :	10111100100101111011100101100010;
	61446 :	10111110011010100100001110110100;
	61445 :	10111110011111001100101101001101;
	61444 :	00111101111100110000101011000111;
	61443 :	00111100000011010110011011111100;
	61442 :	00111101101100100010000000100011;
	61441 :	00111101011111100011110110011000;
	61440 :	10111110000101000100110110111110;
	61439 :	00111011101010001110000010010110;
	61438 :	10111100110010001101110001100001;
	61437 :	00111110000101011101101101101110;
	61436 :	10111101011011001011000001111110;
	61435 :	00111110110101100000000011000101;
	61434 :	10111101001110001000011111100010;
	61433 :	10111101101011001100101000001101;
	61432 :	00111101111101110100000000001110;
	61431 :	10111101100111000001011011101011;
	61430 :	10111101101001010110011100011101;
	61429 :	10111110011000010110010101000101;
	61428 :	10111101000011010110010001110001;
	61427 :	10111010111000101111010010100000;
	61426 :	00111110000111110111100010100111;
	61425 :	00111101101011001001010010001001;
	61424 :	10111100010000111110011011111100;
	61423 :	00111110001101000100011011101101;
	61422 :	00111101000010001100101001001111;
	61421 :	10111101101000110100111010100111;
	61420 :	10111110010011011101101111110010;
	61419 :	10111101100011101110101011000100;
	61418 :	00111101110111100010100101001110;
	61417 :	00111101110100011100110110111000;
	61416 :	10111110000010111111001010000100;
	61415 :	10111101110000000101100001100010;
	61414 :	10111101001101001000111000011110;
	61413 :	00111110100001110101101111101111;
	61412 :	10111101000111010100010111010111;
	61411 :	10111110000010111000100010001000;
	61410 :	10111101111011000101101001011100;
	61409 :	00111110100111001001101100011011;
	61408 :	00111101000010100111101101010000;
	61407 :	10111101110101101011010110101111;
	61406 :	10111110000111000001101100110100;
	61405 :	10111011001010101010101011101010;
	61404 :	10111101011101100101110111111101;
	61403 :	00111010000010100001010010111001;
	61402 :	00111101001000011100110001110110;
	61401 :	00111101001111000001011011011110;
	61400 :	00111101100001110100101000011011;
	61399 :	00111110001001100111011001100000;
	61398 :	00111110000101110101101001001010;
	61397 :	00111100101001011011000111110100;
	61396 :	10111101001100010001001000000111;
	61395 :	10111101110011100100000111111011;
	61394 :	00111101100101011011011000110101;
	61393 :	00111101000101010011011111101001;
	61392 :	00111110100000011111100001011111;
	61391 :	10111100000111010001100111110010;
	61390 :	10111101111101100010011100101101;
	61389 :	10111100011110001110001011010001;
	61388 :	10111100111100101011010010110000;
	61387 :	00111101101111110101100100101000;
	61386 :	10111110000010101100100000001001;
	61385 :	00111101111110100010111100101001;
	61384 :	00111101110110101110001001010110;
	61383 :	10111110000100001010010011001010;
	61382 :	00111110011011100010011010010110;
	61381 :	10111011111000100010111110011010;
	61380 :	10111101110001101111101111010111;
	61379 :	10111110010001011010011011010000;
	61378 :	10111101001001101101101111010111;
	61377 :	00111101100100001001101100110110;
	61376 :	00111101100100010011100100110000;
	61375 :	10111101010001000010111111110100;
	61374 :	00111110010111011100001001011010;
	61373 :	00111101110100000101100101001000;
	61372 :	00111110000001011110111011011101;
	61371 :	10111101011001111011001100010011;
	61370 :	00111101010001001001000111011110;
	61369 :	00111110010100111101000101111010;
	61368 :	10111100011010000101100011011010;
	61367 :	10111101101100010011010000100001;
	61366 :	00111101101111000110110001000111;
	61365 :	10111110001010111111010001010010;
	61364 :	10111101100011101001000001000100;
	61363 :	10111101101010110101110101110100;
	61362 :	00111110000111101100010101000000;
	61361 :	00111110000100100111000010100010;
	61360 :	00111100010001100101000001001000;
	61359 :	00111100111001011001011010101010;
	61358 :	10111101111100110101101000001011;
	61357 :	10111110100000010010111001000011;
	61356 :	00111100101101101100101110011100;
	61355 :	00111101101100101100111000110011;
	61354 :	10111100110011000011111110010100;
	61353 :	00111110010110101101101000111000;
	61352 :	00111100100110000000011000010101;
	61351 :	10111101100010010100111100101010;
	61350 :	00111101010010011011000111001111;
	61349 :	10111110100001000100001001111010;
	61348 :	00111110000101101011110101100011;
	61347 :	00111101010100000001101001001100;
	61346 :	10111110011011110111000001100010;
	61345 :	10111110000111100011011100010010;
	61344 :	00111110001111111011101011101010;
	61343 :	10111110101011001111000001100100;
	61342 :	00111110100001010000010011011111;
	61341 :	00111101011100000000100110000011;
	61340 :	00111101001110100010001011000110;
	61339 :	00111110000010011011010100010011;
	61338 :	10111101110001100111100110100101;
	61337 :	10111110000001011011010101100110;
	61336 :	00111101000011000110001010010010;
	61335 :	10111100001010111100011111000110;
	61334 :	00111100100111010111101000001000;
	61333 :	00111101111010010101101001011101;
	61332 :	10111011110010101011011000100111;
