-- begin_signature
-- weight_rom
-- end_signature
WIDTH=32;
DEPTH=7840;

ADDRESS_RADIX=UNS;
DATA_RADIX=BIN;

CONTENT BEGIN
	7839 :	10110101001101011011010110101101;
	7838 :	10110100001100100001000011111001;
	7837 :	10110011100010111001100001101101;
	7836 :	10110101011100100111111111101001;
	7835 :	11000001010000101011111010111110;
	7834 :	11000001111010001010010011110010;
	7833 :	01000000101100110011101000001011;
	7832 :	01000001111010100100001101110110;
	7831 :	11000010001111011000010100000101;
	7830 :	11000001101111101010010000101110;
	7829 :	11000010101010011011001101000100;
	7828 :	11000010111001001001111100111010;
	7827 :	11000011001010001010010100100001;
	7826 :	11000011010010110111011100001010;
	7825 :	11000011001100110110001110001100;
	7824 :	11000001101100010111100101100001;
	7823 :	11000010011011001100100001001010;
	7822 :	11000010001110001000110111001001;
	7821 :	11000001011010110001010110100100;
	7820 :	11000001101010111000110101001111;
	7819 :	11000010000000010011010110111000;
	7818 :	11000001010010001110011110111111;
	7817 :	00110011110001001001101110001110;
	7816 :	00110101000111011100010101001110;
	7815 :	10110100010001010100000001011011;
	7814 :	10110100100111011111101001100001;
	7813 :	10110101001011001000000101111001;
	7812 :	10110101000000100110111100110100;
	7811 :	00110100011010000011011101110111;
	7810 :	00110101000000100100001011000111;
	7809 :	10110100110100100101100101111010;
	7808 :	10110100110001110101000111101001;
	7807 :	01000001111100100011101100010111;
	7806 :	01000010011110111100100111001000;
	7805 :	01000011000000101010011110100111;
	7804 :	01000011011001101010011010101010;
	7803 :	01000010110111011101111111010110;
	7802 :	01000100000110000011101100111011;
	7801 :	01000011111000100010100110101101;
	7800 :	01000011110011011110001011101010;
	7799 :	01000100001000000000000100101011;
	7798 :	01000100010011000110010000100101;
	7797 :	01000100001001110001010110110111;
	7796 :	01000100000110101010010111010001;
	7795 :	01000011101101111001001100000001;
	7794 :	01000011111110100011110001111111;
	7793 :	01000011110101100000101110111101;
	7792 :	01000010100011011111101000100111;
	7791 :	01000011101101110011011100001100;
	7790 :	01000011101001001100111011101000;
	7789 :	01000001110101011001000000100000;
	7788 :	01000000101101100101000110111110;
	7787 :	00110100001101001000110001111100;
	7786 :	00110100001111000101000110100100;
	7785 :	10110100011110101100100110111011;
	7784 :	10110101001100101001101111000111;
	7783 :	10110101101100000010001101100011;
	7782 :	11000001101010000101011111111110;
	7781 :	11000001100011001101001101110101;
	7780 :	11000010001010010101011001011101;
	7779 :	11000001110100101100111001111100;
	7778 :	01000011100010000001010011111001;
	7777 :	01000100000111101000111100010001;
	7776 :	01000100100001111110010111001010;
	7775 :	01000100010010000111011101001101;
	7774 :	01000100000111101011110001101110;
	7773 :	01000011111001110001000001000101;
	7772 :	01000100000100011000110011111011;
	7771 :	11000010000000000110011010001100;
	7770 :	01000100001000010111010010110100;
	7769 :	01000011110000100101010010100100;
	7768 :	01000100001111001000011111010010;
	7767 :	01000100000100100001100101111000;
	7766 :	01000100000110111011011101110001;
	7765 :	01000011100011010100000010101000;
	7764 :	01000100000001001001110010111010;
	7763 :	01000011101010100100011110100010;
	7762 :	01000010111110111000011111111011;
	7761 :	01000010110010111101011011000011;
	7760 :	00111111111101110101100000110111;
	7759 :	11000001100111101011100011010010;
	7758 :	10110100010000110111101001100011;
	7757 :	00110100111100001000000111101001;
	7756 :	00110101011011100000111101101011;
	7755 :	00110101011111101011000011100001;
	7754 :	11000001100111101010000110101111;
	7753 :	11000010100000010000111101011001;
	7752 :	11000010101000101100110011111000;
	7751 :	01000011100111111001100001000001;
	7750 :	01000100010000101000011010110100;
	7749 :	01000100000111110111000101100100;
	7748 :	01000100000101000110001110101110;
	7747 :	01000011010011001011010100101001;
	7746 :	01000001010011101101001010010000;
	7745 :	01000001011000010011011001001111;
	7744 :	01000001101010010010001011110111;
	7743 :	01000010010010111011110111111100;
	7742 :	11000100000011101101011111010000;
	7741 :	11000100011100001101010101000100;
	7740 :	11000100000111010001000000001110;
	7739 :	11000011000101000000001110011110;
	7738 :	01000011101110010001010110110101;
	7737 :	11000011100010101110110011000101;
	7736 :	01000011000101110111000001000110;
	7735 :	01000010111101101100101100100010;
	7734 :	11000011010011100010011100110101;
	7733 :	11000010011000011100111010011001;
	7732 :	11000010100101000010010000010000;
	7731 :	11000010010101110101011010110011;
	7730 :	10111111100010111000100100110000;
	7729 :	00110101010100101010100000101100;
	7728 :	00110100111001101101101001110000;
	7727 :	00110100100011111110000001000100;
	7726 :	11000000010111001001011010000001;
	7725 :	11000010100011110101100011100001;
	7724 :	01000010101011001001010111001011;
	7723 :	01000011100010001110101011100011;
	7722 :	01000100001100001101110100111111;
	7721 :	01000011111111101100101110011001;
	7720 :	01000010100011001101000010010001;
	7719 :	11000011101010000111100011000011;
	7718 :	11000100001000000011000111000101;
	7717 :	11000100000100000011000100001101;
	7716 :	11000100000101010101100001011011;
	7715 :	11000011010111110010111100100100;
	7714 :	01000000010111000111010011100101;
	7713 :	11000011101110000001100001101111;
	7712 :	11000011101101100001111101111010;
	7711 :	11000011110101000111110011111100;
	7710 :	11000011000100110000100110111001;
	7709 :	11000100000011110100110001011001;
	7708 :	01000001000101010100001010111001;
	7707 :	11000010011111001101010011011110;
	7706 :	11000011111101010000101100100010;
	7705 :	11000011100110101001001101000010;
	7704 :	11000011001111011111101101001101;
	7703 :	11000001110000000000110010000110;
	7702 :	11000001010111110101110101101110;
	7701 :	10110101011100000010101100111000;
	7700 :	10110100111101001110001000010111;
	7699 :	10110100100110011001100110110010;
	7698 :	11000000100110011000100000100001;
	7697 :	11000010010110101111000101110011;
	7696 :	01000011001001010100110000101011;
	7695 :	01000000101111100101101101111100;
	7694 :	01000011001011111110010011000010;
	7693 :	01000010101000010101011011011000;
	7692 :	11000011101000010101011010110101;
	7691 :	11000100010010110101010111101001;
	7690 :	11000011111010000000100001000101;
	7689 :	11000100000100111001010111111100;
	7688 :	11000100000011010101011000110111;
	7687 :	11000100001110101000111000011101;
	7686 :	11000010000011000100001011000001;
	7685 :	11000011110011000010001010001111;
	7684 :	11000010110110100000001011001100;
	7683 :	11000011100101110100110010110001;
	7682 :	01000011001000101000001010110000;
	7681 :	11000011110001010001111101001110;
	7680 :	11000010100001101111001111000101;
	7679 :	11000011101110101011101100001010;
	7678 :	11000100000011001000110101111110;
	7677 :	11000011110110101111001100100100;
	7676 :	11000011001101100101100001110001;
	7675 :	11000010101100100110100101001110;
	7674 :	11000001100101010000110101101010;
	7673 :	00110100101011000110001101111000;
	7672 :	10110010101110101010000111000010;
	7671 :	00110010100000010001110000011101;
	7670 :	11000010001100011110011011111010;
	7669 :	11000001010010010001010000001010;
	7668 :	01000011011100101101000111111000;
	7667 :	11000011011000110100001011001010;
	7666 :	11000011100010010111100010110000;
	7665 :	11000011101001011001111001111010;
	7664 :	11000011110100011001010010100000;
	7663 :	11000011110101110100010011110001;
	7662 :	11000011111110101101000011110010;
	7661 :	11000100001101010101100100110110;
	7660 :	11000100000111101010011000000101;
	7659 :	11000011101000001101001000011010;
	7658 :	11000011100010001000110001101001;
	7657 :	11000100001101011000101000101011;
	7656 :	11000100010011010110111100010000;
	7655 :	11000100011110001000111100011010;
	7654 :	11000011110110111111100111000001;
	7653 :	11000100000101010011000100000110;
	7652 :	11000100010011110101010111100111;
	7651 :	11000011110011011101010100100000;
	7650 :	11000011111010011001100101100111;
	7649 :	11000011101011101101010001101010;
	7648 :	11000011001111010011011101100010;
	7647 :	11000011000001010000011110110101;
	7646 :	11000001100001101110111111101000;
	7645 :	00110100011110100111110101100011;
	7644 :	00110001110000010110111011100100;
	7643 :	00110101001000111111001010001100;
	7642 :	10110100100011110010101001110001;
	7641 :	01000001010000111000010101100110;
	7640 :	01000010001100010011011101110110;
	7639 :	11000011101010110111110111011001;
	7638 :	11000011111001010101010100110010;
	7637 :	11000100000001000110110000101011;
	7636 :	11000011011101111001101100111011;
	7635 :	01000010101110010101010011100011;
	7634 :	11000011001011111010000111011000;
	7633 :	11000011111100000000010100010101;
	7632 :	11000011011101011111111001001011;
	7631 :	11000100000101110011001001111110;
	7630 :	11000011111010011100101000011100;
	7629 :	11000100000011100000111011001000;
	7628 :	11000100101010101001011011000000;
	7627 :	11000100010101011000000001111000;
	7626 :	11000100011100100111101111011101;
	7625 :	11000100100100001011101011001111;
	7624 :	11000100100110111100010010111111;
	7623 :	11000100010101010010111110000110;
	7622 :	11000011110011110101001011010010;
	7621 :	11000011101101101000100011011001;
	7620 :	11000011101110111001000010001011;
	7619 :	11000011001101000100010001101110;
	7618 :	11000001100111110000011110110000;
	7617 :	10111110100101100000001100010011;
	7616 :	10110100111010010110000100000011;
	7615 :	00110100001001100110101001101111;
	7614 :	00110100111001111111010010011011;
	7613 :	11000011001010001110111100111010;
	7612 :	11000011010010000100110000100111;
	7611 :	11000100001000001011001101010110;
	7610 :	11000100001101100001111001111010;
	7609 :	11000100000000011001001110110101;
	7608 :	11000000110000001011011110101000;
	7607 :	01000011001010100100000010111010;
	7606 :	11000011111010100101011111001011;
	7605 :	11000011111001110010001011010000;
	7604 :	11000010101110100111110001100000;
	7603 :	11000011011101101011010011011010;
	7602 :	11000011110010010000110100101110;
	7601 :	11000011000101010110001101101100;
	7600 :	11000100001101001011111100000111;
	7599 :	11000100001001001011011010111001;
	7598 :	11000100001111110111111000111101;
	7597 :	11000100010001000001000001111101;
	7596 :	11000100001110010000110100100101;
	7595 :	11000011100101111111101111000111;
	7594 :	11000011110110101000011011010001;
	7593 :	11000100001111011100111010011101;
	7592 :	11000100000000100110001001110101;
	7591 :	11000011011110111101101110101101;
	7590 :	11000001111011011111110011000011;
	7589 :	10111111110000111101100100111110;
	7588 :	00110100110110100011011111110101;
	7587 :	10111110011111101101100111010011;
	7586 :	11000000100101110101000101000011;
	7585 :	11000011001000111101101001111010;
	7584 :	11000011110111011011110100111101;
	7583 :	11000100001100011101001000111101;
	7582 :	11000100000110011111101011011111;
	7581 :	11000011110011011110000101110110;
	7580 :	00111111111110101110111010101011;
	7579 :	11000010010101010001010101011111;
	7578 :	11000011001000011100111011000010;
	7577 :	11000011101001001100001010000001;
	7576 :	11000000111001100111110010110011;
	7575 :	01000010101000000000111100101101;
	7574 :	01000011100101000011011011101010;
	7573 :	11000011110110001110000010101111;
	7572 :	11000100001000110010111000011001;
	7571 :	01000011100111100001010100110000;
	7570 :	01000011000101111000111001101111;
	7569 :	11000011010011001100111011101110;
	7568 :	11000011011110000111011111110010;
	7567 :	11000011010001010100111101101101;
	7566 :	11000011100010000101110100100111;
	7565 :	11000100001101010010001011001011;
	7564 :	11000100001001111000100000011001;
	7563 :	11000011001101100001000000001011;
	7562 :	11000010000000101101100010001001;
	7561 :	10110011011110111111100001111110;
	7560 :	00111111110110011101011111010000;
	7559 :	10111111001011110011010110101101;
	7558 :	11000001101100100110010100111101;
	7557 :	11000010101100010110001100111100;
	7556 :	11000100000100011110010110010010;
	7555 :	11000100001000100010010010011101;
	7554 :	11000100000100110100000110000001;
	7553 :	11000011011111101111101111110110;
	7552 :	11000011000000111011000111011011;
	7551 :	11000011100001010110100100100001;
	7550 :	01000010011100011101111000001000;
	7549 :	11000010110100010001101101110011;
	7548 :	01000001111000001110010001000101;
	7547 :	01000100000000101000100001000101;
	7546 :	11000011000001000000110011000111;
	7545 :	11000011110111100100000010000000;
	7544 :	11000010010010111010100010010101;
	7543 :	11000011000111001110000111001000;
	7542 :	11000010011011100000101010101101;
	7541 :	01000010011100101011110000100001;
	7540 :	01000010101000010000100100000001;
	7539 :	01000010101111000000100000001001;
	7538 :	11000011001111001100101001111111;
	7537 :	11000011011111011010110110100100;
	7536 :	11000011110100011001010100110000;
	7535 :	11000010010000001010001000001101;
	7534 :	11000010010101010110000100111010;
	7533 :	10110101011000010000111001100100;
	7532 :	10110010100100000110011010111001;
	7531 :	10111111001011110011010110100010;
	7530 :	11000010000110010111111110011011;
	7529 :	11000011001100100010001001100000;
	7528 :	11000100001101100001000011110111;
	7527 :	11000100010000011000111011000000;
	7526 :	11000100000010111001101111100100;
	7525 :	11000011111111100010011011001001;
	7524 :	11000011000010110000000110000100;
	7523 :	11000100000111111101011001001100;
	7522 :	11000010111100101000011110111010;
	7521 :	01000011111010010011111100110000;
	7520 :	01000100000100011010101100011100;
	7519 :	11000011000011110010000000110001;
	7518 :	11000011110001001101101000000011;
	7517 :	11000100011001011010011000011010;
	7516 :	11000011111101101110110101101011;
	7515 :	01000011010011101110010010110101;
	7514 :	01000011101100101010110101000001;
	7513 :	11000011010000001111110111110110;
	7512 :	01000010111011111010000110001001;
	7511 :	11000011101000100011001100011111;
	7510 :	11000011000101010100110010000101;
	7509 :	00111111111101110110110010011101;
	7508 :	01000010101001100011100010100010;
	7507 :	01000010000110010010110001001010;
	7506 :	11000010000111100110101110111011;
	7505 :	00110010101000001000101100011100;
	7504 :	10110011001011110000000101001111;
	7503 :	10111110101111110010001101001010;
	7502 :	11000010010110110100010011110100;
	7501 :	11000010111111000001101001100011;
	7500 :	11000100001011001101111100110101;
	7499 :	11000100010000110010111010000101;
	7498 :	11000011110000101110000101100001;
	7497 :	11000011011010011100101010100010;
	7496 :	11000010111100010100010100101100;
	7495 :	11000010000111111010100000010111;
	7494 :	01000010111110100110100000110100;
	7493 :	01000011111110000100010010010011;
	7492 :	01000011110001010011000010010001;
	7491 :	01000011100011111000110000010010;
	7490 :	11000011010110111000110001000010;
	7489 :	11000011100000001011111000011000;
	7488 :	11000011001010001000110001000011;
	7487 :	11000010110010110000010100101010;
	7486 :	01000011001001011001000100111100;
	7485 :	11000010100001001010111000000011;
	7484 :	01000011101100100110110111010110;
	7483 :	11000011010010111001011110011100;
	7482 :	11000011001101101110001000001010;
	7481 :	11000010111110011111100000000100;
	7480 :	01000011101010001101101010010111;
	7479 :	01000010100000010100011011101001;
	7478 :	11000010010101111001100101000110;
	7477 :	10110100000010111100100001100100;
	7476 :	11000000101100101010110010000101;
	7475 :	10110100111001000010000001100111;
	7474 :	11000001101101110011000011011110;
	7473 :	11000011001010010001110001010010;
	7472 :	11000100001010101101000111001011;
	7471 :	11000100010000101101110000011101;
	7470 :	11000011000000111101010101110000;
	7469 :	01000010011101011111111011100110;
	7468 :	01000011100111000110100110100110;
	7467 :	01000010010010001110001100000110;
	7466 :	01000011000111001000101000011101;
	7465 :	01000100001010101101000000111100;
	7464 :	01000011111011001011111100011001;
	7463 :	01000100001101101001100001100011;
	7462 :	01000010101101011011100110111111;
	7461 :	01000010011111011111011101000111;
	7460 :	11000011011010101011011011000100;
	7459 :	01000010101100011111011100100011;
	7458 :	11000011000001010111001010101110;
	7457 :	11000011011000100100001111110111;
	7456 :	01000011010000111011100000010101;
	7455 :	01000011000100100010101010100000;
	7454 :	01000100000100100000100001001001;
	7453 :	01000011000111101010010001110111;
	7452 :	01000100000011100011100010001111;
	7451 :	01000010111011000110110000010010;
	7450 :	11000001111000000001101101010001;
	7449 :	10111101011100111011101010001101;
	7448 :	11000001100010000110101110000001;
	7447 :	11000000000011001011100101010101;
	7446 :	11000010110011100010101100101110;
	7445 :	11000011100111011000111111000011;
	7444 :	11000100000110110100100101000010;
	7443 :	11000011101110000000010010011001;
	7442 :	01000011001100110000000111001000;
	7441 :	01000100001001111100111000101100;
	7440 :	01000100000111110001110001010111;
	7439 :	01000100010000101000010000000100;
	7438 :	01000011110010010010010011101011;
	7437 :	01000100010101110010000010111111;
	7436 :	01000100000110001101101101110010;
	7435 :	01000100000001110001110001110101;
	7434 :	01000100001101001101011010010011;
	7433 :	01000011100101000011101101111000;
	7432 :	11000011011110111100101000110110;
	7431 :	11000010011011000011110010000010;
	7430 :	11000010101110010001100101010110;
	7429 :	01000010101100111101010111010101;
	7428 :	01000011100101101011100011000000;
	7427 :	01000100010010010111011111000101;
	7426 :	01000011011110011001000101010101;
	7425 :	01000100000010000011010100000110;
	7424 :	01000100010000100101001000000110;
	7423 :	11000010111001110110000010010101;
	7422 :	11000010100111111101101011110100;
	7421 :	11000001011000001110111001010010;
	7420 :	10110101000001110110001101010101;
	7419 :	11000000100010011111011011110110;
	7418 :	11000010010011011110111001011011;
	7417 :	11000011010001110110000111101111;
	7416 :	11000011001111101000111110101011;
	7415 :	01000100000111101011101001110111;
	7414 :	01000100011110001001011101101110;
	7413 :	01000100011111001011110010111011;
	7412 :	01000100001110100001100001000110;
	7411 :	01000100011000111011001111011010;
	7410 :	01000100000001000100100100100111;
	7409 :	01000100010111110110101100010010;
	7408 :	01000011110101000101010011011101;
	7407 :	01000100001010010001110000011000;
	7406 :	01000100011111101011000001100110;
	7405 :	01000010101101010110010111111110;
	7404 :	11000011101101101010010101111001;
	7403 :	01000001011011001101000011101111;
	7402 :	01000011010100101001010000110001;
	7401 :	01000100001100001001000100110100;
	7400 :	01000011110000111110101010000111;
	7399 :	01000100000100001011100110101100;
	7398 :	01000100000101011110010111110101;
	7397 :	01000100010010011111001000001111;
	7396 :	01000011110001101100101111110111;
	7395 :	11000011011100110111110011111001;
	7394 :	11000011010011110010000100110111;
	7393 :	11000010000111010010010101001001;
	7392 :	10110100110100000000100010000110;
	7391 :	10111101101100001001100010011000;
	7390 :	11000001100001001100001111110000;
	7389 :	11000011000101101101101100110011;
	7388 :	11000010101101111011111110010000;
	7387 :	01000001001010001100010100010001;
	7386 :	01000011000010101111011010000001;
	7385 :	01000100001100000110001101000110;
	7384 :	01000100100010111011111111101101;
	7383 :	01000011000101111110111101101011;
	7382 :	01000100000010111011010110101100;
	7381 :	01000100010111111001000110100100;
	7380 :	01000011101110100110111100011101;
	7379 :	01000011010100011101100100001010;
	7378 :	01000011011100001110001110111001;
	7377 :	01000010111000110111001111001111;
	7376 :	11000011001001110111000011011100;
	7375 :	01000011101101111011010010011001;
	7374 :	01000100010000000001111000011010;
	7373 :	01000100000000100111101010011110;
	7372 :	01000100001011110101010100001011;
	7371 :	01000100000110111000011000010010;
	7370 :	01000100000110010111000101100100;
	7369 :	01000011110110011100011101000001;
	7368 :	11000010011010101101101011001100;
	7367 :	11000011000110000001111011010010;
	7366 :	11000011000100100001111111000000;
	7365 :	11000010000111000010000010001101;
	7364 :	00110100111111011000110011111110;
	7363 :	11000000110110000100010001111000;
	7362 :	11000010101111000101111101101010;
	7361 :	11000011011001111000000110111100;
	7360 :	11000011110110001010000110001101;
	7359 :	11000011110101001000110011001001;
	7358 :	11000011001011101000011011111101;
	7357 :	11000001101000110011000100101010;
	7356 :	01000011011010001001000001011101;
	7355 :	01000011111100010011001111100111;
	7354 :	11000001011110111010011000101001;
	7353 :	11000011011001000101111000111111;
	7352 :	11000001110001010010100101000011;
	7351 :	11000010110001001111010101001101;
	7350 :	01000001000110100100110011101000;
	7349 :	11000100000010000110110001001000;
	7348 :	01000011010011110000001100011001;
	7347 :	01000011011100011010100000011111;
	7346 :	01000011001111010110100100110101;
	7345 :	01000011001000011011001100011011;
	7344 :	01000011110101110101011110001001;
	7343 :	01000011001111001110000111010111;
	7342 :	01000011110110010110101110010111;
	7341 :	01000010010011011100100010100101;
	7340 :	11000011110101010010011101010010;
	7339 :	11000011000100111001110111110110;
	7338 :	11000010111100001011010111111111;
	7337 :	11000010011010010100011111111110;
	7336 :	00110101001011100111010010010001;
	7335 :	11000001100101111100011000011111;
	7334 :	11000010101001000010110011101110;
	7333 :	11000011100100111010100001100000;
	7332 :	11000100000011010011101110110110;
	7331 :	11000100000011101111010010000000;
	7330 :	11000011110011100011000110110100;
	7329 :	11000011100111110010000000110011;
	7328 :	01000011001110111110010110110011;
	7327 :	11000011100001001000111010001000;
	7326 :	01000011011110001011010110100000;
	7325 :	11000011001100100010001010101101;
	7324 :	11000011100100100100100011011010;
	7323 :	01000100011001111011100001000100;
	7322 :	01000100000001001000110110100100;
	7321 :	01000011110001011100100010010010;
	7320 :	01000010100110010000110100001000;
	7319 :	11000010001101101111000110100101;
	7318 :	01000011100001111110011001111001;
	7317 :	11000011101000000011000100010100;
	7316 :	01000010100100001111110010010010;
	7315 :	01000011011111100001011111101101;
	7314 :	01000011011011001110110010010110;
	7313 :	11000011110001101101111111111011;
	7312 :	11000100000000010111101000010110;
	7311 :	11000011100100110110101001110111;
	7310 :	11000011001000101011111010010100;
	7309 :	11000010011100010000101110110110;
	7308 :	00110100010001001101101100001111;
	7307 :	11000000100001101101111100111011;
	7306 :	11000010101100100111110000010010;
	7305 :	11000011110000001111001010010011;
	7304 :	11000100000100001101011110100001;
	7303 :	11000100000100010010111011101110;
	7302 :	11000011110110000111010000101110;
	7301 :	01000011001011100010111011110010;
	7300 :	01000001010010101101010101101111;
	7299 :	11000011101110001110000011001001;
	7298 :	01000011101001001001000001110110;
	7297 :	01000001100010101110110011100000;
	7296 :	01000011111001000101100010000111;
	7295 :	01000100100000011000110000110000;
	7294 :	01000100011011000110110100100010;
	7293 :	01000100001001011001000001100101;
	7292 :	11000011010000111001101110100100;
	7291 :	11000011001100100010001001001111;
	7290 :	11000011111101100110101011001111;
	7289 :	11000011001111101101100101110100;
	7288 :	11000010111001100110101010110110;
	7287 :	11000100000111010100000010101101;
	7286 :	11000011010101110001001000110101;
	7285 :	11000011101101011100101101110111;
	7284 :	11000011110001011100111011001101;
	7283 :	11000011100010101100111110000100;
	7282 :	11000010110100110111111010101011;
	7281 :	11000010001001111101100101100100;
	7280 :	00110101011100011110011010000011;
	7279 :	11000000001000100011101101100010;
	7278 :	11000010101010000011001110111111;
	7277 :	11000011101000000110101110101100;
	7276 :	11000100000101101110110110010110;
	7275 :	11000100001110011011011111000101;
	7274 :	11000100000001111101101100001110;
	7273 :	11000010110100010101111001010101;
	7272 :	01000011101001010101000011111111;
	7271 :	01000010001111111001000010000100;
	7270 :	01000011000010111110011010110001;
	7269 :	01000100011110110101100100100111;
	7268 :	01000100100010010110010001110100;
	7267 :	01000100100111110001011111001010;
	7266 :	01000100100100011011110011011101;
	7265 :	01000100100011001010101000110110;
	7264 :	01000100000011101110111100000001;
	7263 :	01000010110011011000000101110010;
	7262 :	11000011010000101100100011001001;
	7261 :	11000011010000011101011100000000;
	7260 :	11000011010000011001011111100111;
	7259 :	11000100001100000101010110101001;
	7258 :	11000100000000100111111011010100;
	7257 :	11000100000010100000111111100001;
	7256 :	11000011101101110101100001000110;
	7255 :	11000010111010100010010010000111;
	7254 :	11000001101011101110100001101000;
	7253 :	10111111101100010001000000000000;
	7252 :	10110100110111000110010000001011;
	7251 :	11000000011111000011010100110111;
	7250 :	11000001001111111001010100010100;
	7249 :	11000011000011110010010000110011;
	7248 :	11000011101110101101001011101001;
	7247 :	11000100001101110100010111011010;
	7246 :	11000100010010101010010111111101;
	7245 :	11000011110101110101011000000001;
	7244 :	11000011011100010111010000011100;
	7243 :	11000010100011101100001011101001;
	7242 :	01000011100101111010111000011011;
	7241 :	01000100001111111000100010000010;
	7240 :	01000100001110110010001101111011;
	7239 :	01000011101100010010110001001011;
	7238 :	01000100000010011010011111001100;
	7237 :	01000011101100111110000101100001;
	7236 :	01000011001101110110011011001000;
	7235 :	01000010010111010001011100110111;
	7234 :	11000011001111011110000011101110;
	7233 :	10111111100011010001001010000011;
	7232 :	11000100000011011111111000110101;
	7231 :	11000011111111101010111010001101;
	7230 :	11000011101101101011010010110110;
	7229 :	11000011101110011001101101000011;
	7228 :	11000010111011110111000110110101;
	7227 :	11000000101101111010100001111110;
	7226 :	10110100010011100011000101110011;
	7225 :	00110100111001011100100110110110;
	7224 :	10110101001001011001011010001000;
	7223 :	10110100000001100000000100010010;
	7222 :	11000001001101100011100110110111;
	7221 :	11000010010111101001111001000000;
	7220 :	11000010111001111001001111011011;
	7219 :	11000011011011011111101000101011;
	7218 :	11000011110110100001111100111101;
	7217 :	11000100000001000101010010001100;
	7216 :	11000100001000111011100111100101;
	7215 :	11000100010001101001001011001101;
	7214 :	11000100011101010111011111100011;
	7213 :	11000100010101001001100010100001;
	7212 :	11000100010111111101010110110110;
	7211 :	11000100000000010010100111101100;
	7210 :	11000100000011011101100001111111;
	7209 :	01000011101110100111100010101000;
	7208 :	01000100000101111001011000001001;
	7207 :	01000011111100010010100011010000;
	7206 :	11000011000110011101110110101010;
	7205 :	11000011100101111000110001110110;
	7204 :	11000011100101010010111101110000;
	7203 :	11000011010101001010100010111100;
	7202 :	11000011000000001000110111101011;
	7201 :	11000001110101011000011101101010;
	7200 :	11000000000101110110101101110100;
	7199 :	11000000010100010101001111100000;
	7198 :	10110101100101010100110001110111;
	7197 :	10110010111000100010101011100000;
	7196 :	10110100000010101000111011101110;
	7195 :	00110101100100000101110110000111;
	7194 :	10110100111101000001011000010101;
	7193 :	10111111100110011100101000011000;
	7192 :	10111111111011100011111101111110;
	7191 :	11000001011000101101001010010111;
	7190 :	11000010110110000000010111110111;
	7189 :	11000011001111000011110110110001;
	7188 :	11000011010100011011110001110101;
	7187 :	11000011100001101110111101000101;
	7186 :	11000011100000101100101101011100;
	7185 :	11000011110001100111000000000011;
	7184 :	11000100000100011010110100011101;
	7183 :	11000100000100001100000101001100;
	7182 :	11000100000101010100010110010101;
	7181 :	11000100000001100000101111011010;
	7180 :	11000011101111101001000001000000;
	7179 :	11000011100110000101100000011110;
	7178 :	11000011000110010010100001110011;
	7177 :	11000011000101110100011110001101;
	7176 :	11000010110011011110100111001101;
	7175 :	11000010010000101010101010110110;
	7174 :	11000010000000000010110111000010;
	7173 :	10111111010011000101000000110000;
	7172 :	00110100101100111010001000100001;
	7171 :	10110001111001010100111101111001;
	7170 :	00110001101001110110000100100011;
	7169 :	00110100110101001101111000001001;
	7168 :	00110100000000000001010010111110;
	7167 :	00110100001010011010111011100011;
	7166 :	00110101000101001100110110111010;
	7165 :	00110101011010011110001000100000;
	7164 :	00110011110110111000010110111110;
	7163 :	00110100101100001100101011001100;
	7162 :	11000001000111011110001100011011;
	7161 :	11000010000110100010010100101110;
	7160 :	11000010110010000110110001010101;
	7159 :	11000010101110101111010110101101;
	7158 :	11000010011111111111010111101110;
	7157 :	11000011001011000100111111110110;
	7156 :	11000011010110100001010111000010;
	7155 :	11000011010011101001000000001000;
	7154 :	11000011001001011000011100000110;
	7153 :	11000011000000111000001001010001;
	7152 :	11000010110000001000011000000100;
	7151 :	11000010101011010111010011110100;
	7150 :	11000010000000111011101001111110;
	7149 :	11000001110101011111111110000110;
	7148 :	11000001100000000011011000110010;
	7147 :	11000001010110001000001100100001;
	7146 :	10110100101011000001110010111101;
	7145 :	10110100111000110010100110001011;
	7144 :	10110011100110111111110000111100;
	7143 :	00110011000110011100000010110011;
	7142 :	10110101000001111101010100011111;
	7141 :	00110100100111011011011111011001;
	7140 :	00110011111101101010101011101100;
	7139 :	10110100111101000011010101010110;
	7138 :	00110100011111100110011011110010;
	7137 :	00110100110100000101011010100001;
	7136 :	10110101010110111101000010001011;
	7135 :	10110011111010010110010001001101;
	7134 :	10110101000110111010010001111111;
	7133 :	10111110110001001101100010000111;
	7132 :	11000000110100000010010101001100;
	7131 :	11000010000000101100100010110111;
	7130 :	11000010001010001000110110010000;
	7129 :	11000010000111111100110101011101;
	7128 :	11000010001100001000010111011110;
	7127 :	11000001110100010111110101010111;
	7126 :	11000001010010111111000010110110;
	7125 :	11000001101100100111111011000010;
	7124 :	11000001100111111001100101101010;
	7123 :	11000000111101000010000010111111;
	7122 :	11000000111101011111111001001001;
	7121 :	11000001000000110011110011011110;
	7120 :	11000001001011111011010011110100;
	7119 :	11000001010010100111100100100110;
	7118 :	00110100100000001011110111101011;
	7117 :	10110100010001010011001001010110;
	7116 :	10110100111101101110010101011010;
	7115 :	10110100000001001111101110100100;
	7114 :	00110100110011100111010000001101;
	7113 :	00110100010101100101101110000100;
	7112 :	00110100110100001010011000100111;
	7111 :	00110101001011011111010100011000;
	7110 :	10110100100000010110010010000011;
	7109 :	00110100010011011110101111111011;
	7108 :	10110100111010000110111011010111;
	7107 :	00110101000110110001111010110101;
	7106 :	10110011001000000001111000111001;
	7105 :	00110100000001000100101001000011;
	7104 :	00110100100000101111101000010111;
	7103 :	11000000001010011000001100101000;
	7102 :	11000001000100010001001111101101;
	7101 :	11000001010111000110011111011000;
	7100 :	11000001010000011111010010101110;
	7099 :	11000000100001001000101000111110;
	7098 :	10110100110111000010110000100110;
	7097 :	11000000111100000000001000011011;
	7096 :	11000000111011010010011010100101;
	7095 :	10110100111101000010001011010111;
	7094 :	11000000000110110011010010001000;
	7093 :	11000000111011110110111010110100;
	7092 :	11000000111100000110000011111101;
	7091 :	11000000010000010000111101100110;
	7090 :	10110100111010001011011100100001;
	7089 :	10110101011100100101100110110001;
	7088 :	10110100001001110000011101011011;
	7087 :	10110011101111101010100010001001;
	7086 :	00110100011000011110000100001101;
	7085 :	00110011110100010101111011010100;
	7084 :	00110100100110110011001010101010;
	7083 :	00110100011110110001111011010011;
	7082 :	10110011110101001101011100001000;
	7081 :	00110011000001001010010111011011;
	7080 :	10110011101000000010100100110111;
	7079 :	00110001010101000101000111110100;
	7078 :	00110000000101101100000011110010;
	7077 :	00110100110010010001101110100100;
	7076 :	00110101001011111000100001111011;
	7075 :	10110100001100111000111001100111;
	7074 :	10110101100001010101100010010000;
	7073 :	00110100110000010101101000000100;
	7072 :	00110101000101000100001100010011;
	7071 :	10110100100011111001101000010011;
	7070 :	10110100001011000000101001101000;
	7069 :	11000001001101010110111101001101;
	7068 :	11000000101001011011100001001110;
	7067 :	10110101100101101110100111000111;
	7066 :	00110100111100011111111010000111;
	7065 :	10110100011010011000001110001111;
	7064 :	00110100110011111000111101100110;
	7063 :	00110100110010100110110010011101;
	7062 :	00110011011000110000000111000111;
	7061 :	10110101000000010011011110010100;
	7060 :	10110100110001111101101011100010;
	7059 :	10110101011011010110111100001011;
	7058 :	10110100101100001001101100010111;
	7057 :	10110101001001011111000011101111;
	7056 :	10110100011010000101111010111101;
	7055 :	00110100110000110101110001000111;
	7054 :	10110011101110001010000110001101;
	7053 :	10110100110000011000001000001101;
	7052 :	00110010111011011110111111010101;
	7051 :	10110011110100111011000101110111;
	7050 :	10110101010101101001011101000111;
	7049 :	11000001001100110100101000010101;
	7048 :	11000001111111110010110000100100;
	7047 :	11000001101110001011100000100011;
	7046 :	11000001101011010010010001111111;
	7045 :	11000000000101101100101101010001;
	7044 :	10111111101010111000101011011011;
	7043 :	11000001000100001101101010100001;
	7042 :	11000001001101011110110110100001;
	7041 :	11000000011001000100111010000011;
	7040 :	10111111000001101100001101110101;
	7039 :	11000000111001110001001100000010;
	7038 :	11000010011110010111010010000101;
	7037 :	10110101011110100001000111110111;
	7036 :	10110101000011101001011011101110;
	7035 :	10110011100001111101111010111011;
	7034 :	10110101001110111000010100001010;
	7033 :	00110011001110011110001010001000;
	7032 :	10110100000100000100110111111010;
	7031 :	10110101000001001010101101100011;
	7030 :	10110100100011001010101000101010;
	7029 :	10110100011110110110110011101001;
	7028 :	10110101000100001011011011011110;
	7027 :	10110101101110100110100111001110;
	7026 :	10110101101001100001011000111101;
	7025 :	10110011110000001010111111110101;
	7024 :	00110100011100111100111110010001;
	7023 :	01000000000101110000110100011111;
	7022 :	11000001111110011100010001001111;
	7021 :	11000010011000101110001010011110;
	7020 :	11000010111010111011100011110000;
	7019 :	11000011001010001001011001001011;
	7018 :	11000011010011111111100010111011;
	7017 :	11000011100001001001010001110001;
	7016 :	11000011101011010111001000111101;
	7015 :	11000011111000110011111111101011;
	7014 :	11000011100100000010011111000010;
	7013 :	11000011010010111110101001110110;
	7012 :	11000011011100001000011101111100;
	7011 :	11000011010100111011111101000001;
	7010 :	11000011101101010000100011011000;
	7009 :	11000011100111011111100010001111;
	7008 :	11000011010000101100100011100001;
	7007 :	11000010110101111101001110100111;
	7006 :	11000010101011000000110110100110;
	7005 :	11000010000111000111010001101101;
	7004 :	11000000100111111101101111110001;
	7003 :	10110101001010110010011111101110;
	7002 :	00110100101100101000001000010100;
	7001 :	00110100111010001101110000010110;
	7000 :	10110011101110001011111100011001;
	6999 :	00110100110110001001001101101001;
	6998 :	11000001000100000000100101011100;
	6997 :	11000000111100001111101111110111;
	6996 :	11000010010100001100010100001011;
	6995 :	11000010111001110100100000001100;
	6994 :	11000010101101010000010101011001;
	6993 :	11000011000010100101000011111111;
	6992 :	11000011001011100001000011111000;
	6991 :	11000011000111101111011110000111;
	6990 :	11000011011110010100000010110011;
	6989 :	11000011000111010100110010011010;
	6988 :	11000010100011000011011010111001;
	6987 :	11000011011111101101001101010111;
	6986 :	11000011101111001000010111101000;
	6985 :	11000100010010010010100000101100;
	6984 :	11000100010100010110110000011010;
	6983 :	11000100001110110110000111110011;
	6982 :	11000100000111011110000010001010;
	6981 :	11000100011000010110101111110000;
	6980 :	11000100010001101100111100111011;
	6979 :	11000100000011011000101110100010;
	6978 :	11000011111100110110000110110010;
	6977 :	11000011101010001111111100000101;
	6976 :	11000011010101000010010101110111;
	6975 :	11000010001100110110110110101100;
	6974 :	00110100001001100000010100110001;
	6973 :	10110100110010111011111110000001;
	6972 :	00110101000011100010111000111101;
	6971 :	00110100111111111100010101111000;
	6970 :	11000001010010011010111010001100;
	6969 :	11000010011011101000110010111111;
	6968 :	11000010100000011001001010010111;
	6967 :	11000011000011001100011000100111;
	6966 :	11000011011111000100111000001101;
	6965 :	11000010110000101010110000110110;
	6964 :	11000000101010110011000010110010;
	6963 :	01000011111100100101110001101110;
	6962 :	01000011101001110111100001010101;
	6961 :	11000010001101111111110000011111;
	6960 :	01000100000100100111010001111100;
	6959 :	01000011010111110001100011101010;
	6958 :	01000100000001110010010100111101;
	6957 :	01000100010101011110001000111011;
	6956 :	01000100001101100011100110001110;
	6955 :	01000011101010011111001000100011;
	6954 :	11000010010000001000111101111000;
	6953 :	11000010111111110001011011011100;
	6952 :	11000010011110101011000111111110;
	6951 :	11000100001111101010011011100000;
	6950 :	11000100100000110110000100000001;
	6949 :	11000100000100010101001011011011;
	6948 :	11000011110000010100100111001101;
	6947 :	11000011001011000011111100111001;
	6946 :	00110101100100010110100101000000;
	6945 :	00110011111111101101011010100111;
	6944 :	00110011101011000101100010010101;
	6943 :	00110101011001011011010110011011;
	6942 :	11000010000001111000111111100100;
	6941 :	11000010010011000100100011010111;
	6940 :	11000010011101110001010001110110;
	6939 :	01000010111001100100011010110100;
	6938 :	01000001110011111010111100001010;
	6937 :	01000100000000110101100111101101;
	6936 :	01000011101110001010000100100110;
	6935 :	01000011101100011000100100110010;
	6934 :	01000011110100000011000001110001;
	6933 :	01000011101011111100101011001010;
	6932 :	01000100000010000111101111001110;
	6931 :	01000100000110111100001101101010;
	6930 :	01000011110111111001011101111111;
	6929 :	01000100000001011001001011000111;
	6928 :	01000011111100011010010000010101;
	6927 :	01000011100011011100100100010110;
	6926 :	01000010100001100000000001010010;
	6925 :	01000010101110101110011101001010;
	6924 :	01000011101100100011100101110101;
	6923 :	11000011110011010111100100100111;
	6922 :	11000100101000110010101011111111;
	6921 :	11000100001011100010011101100111;
	6920 :	11000011100101100000010001101001;
	6919 :	11000010101011110101000100100110;
	6918 :	11000000100010110001010001110101;
	6917 :	00110100011001001110010101101010;
	6916 :	10110011111110110101110111000011;
	6915 :	00110100110111010101111101010101;
	6914 :	11000000110001010110010010010110;
	6913 :	11000010010001101001111101010001;
	6912 :	11000010010101011011000001010010;
	6911 :	11000010011001000101000111100010;
	6910 :	11000001000000100010001101111000;
	6909 :	01000011100010101011111000101110;
	6908 :	11000010111110110001110110100100;
	6907 :	11000010101110110000001110110100;
	6906 :	01000010001010001010101110111111;
	6905 :	11000001111000110110000011100000;
	6904 :	01000010101011011101110111110010;
	6903 :	01000011001110011100100010001000;
	6902 :	01000011101010000110011100111101;
	6901 :	01000011110111000010011000100001;
	6900 :	01000011110001010101011011100111;
	6899 :	01000011101100000111010011001010;
	6898 :	01000011000001111110001111000111;
	6897 :	11000011110101001000110010000100;
	6896 :	11000011110101000000100011100001;
	6895 :	01000001110110101101100100110100;
	6894 :	11000011010110101101001011111011;
	6893 :	11000011110110011110011000100111;
	6892 :	11000011101011010001010010101011;
	6891 :	11000011001001101001111101010011;
	6890 :	11000001100010001001000011110010;
	6889 :	00110101010000101111000100100010;
	6888 :	10110011001110110010000010101001;
	6887 :	00110011010101100100011111110101;
	6886 :	00110101000011100100101011111001;
	6885 :	11000011000111011010111101001000;
	6884 :	11000011101101011011100011011000;
	6883 :	11000011001111011101111101101100;
	6882 :	01000010001001110000100110100010;
	6881 :	01000010010100010100000011011011;
	6880 :	01000011101011110011011001001011;
	6879 :	01000010100100110101001011111101;
	6878 :	11000001111011111110101000000101;
	6877 :	01000010110101000100100001000111;
	6876 :	11000001110010010010011111101010;
	6875 :	11000001101010011001001111000001;
	6874 :	11000011101111001000111011111010;
	6873 :	01000011100000010011100001110001;
	6872 :	11000011100110110000111001010011;
	6871 :	11000010101101000000010111111001;
	6870 :	11000011000010101110111110110100;
	6869 :	01000010101001110111101001000011;
	6868 :	11000011011101001111101010000110;
	6867 :	01000011001000000010010010110111;
	6866 :	01000011100000000000110000010001;
	6865 :	11000011111000000111010101110001;
	6864 :	11000100000010101100001011100011;
	6863 :	11000011011011010110100010100011;
	6862 :	11000010000111100100101110001000;
	6861 :	10110100100000010110101011010111;
	6860 :	10110100111110100101011011011111;
	6859 :	11000000000100011000001100001001;
	6858 :	11000000110110100101010111011101;
	6857 :	11000011000110001000010010101111;
	6856 :	11000011101011010111111010101111;
	6855 :	01000010111010000000001011110011;
	6854 :	01000011001110011001100101101011;
	6853 :	01000100000011000000011011110001;
	6852 :	01000011100001010011000101000110;
	6851 :	11000001110100001100100110000001;
	6850 :	11000011100101101000011010001110;
	6849 :	01000011000111010101100001110111;
	6848 :	11000100001010101101101100010011;
	6847 :	01000010110111100110100101101000;
	6846 :	11000100011100100001100000100110;
	6845 :	11000011100000000101010111011011;
	6844 :	11000011011101111001000001001011;
	6843 :	11000100001000001010101111100011;
	6842 :	01000011011000011011000000010100;
	6841 :	01000010100011111001101010010001;
	6840 :	01000011101111111000110110000001;
	6839 :	01000100100000101001001011100010;
	6838 :	01000010001111101001010000010000;
	6837 :	11000011110110011001011111100011;
	6836 :	11000100000100101010110111110100;
	6835 :	11000011011111010000101010000001;
	6834 :	11000001111100000101000111111010;
	6833 :	00110100011111000110000001101101;
	6832 :	00110001100010010100011101111011;
	6831 :	10111111101111011111111101010111;
	6830 :	11000001101100101111110001101101;
	6829 :	11000011011000001010001010001110;
	6828 :	11000011011011000001011101110001;
	6827 :	01000011110000001001101100100010;
	6826 :	01000011000001110111010100000110;
	6825 :	11000011010010111100101101011001;
	6824 :	11000011001001100100101001000110;
	6823 :	11000010000101110001001000010010;
	6822 :	11000011101001001000101111010001;
	6821 :	01000010111011010100111111111000;
	6820 :	11000010011000100011101001111001;
	6819 :	11000011101101000010101000011000;
	6818 :	11000100001110100011001101001111;
	6817 :	11000011110000000001011110010000;
	6816 :	01000010100001111001000111111110;
	6815 :	01000010010001010111111010001011;
	6814 :	01000011111001101001110101000010;
	6813 :	01000011110011101000010110001011;
	6812 :	01000011010110101011001101011101;
	6811 :	11000010101011010111110100001110;
	6810 :	11000011000110010010011111111110;
	6809 :	11000010101101100000101001101100;
	6808 :	11000100000110100010101111100010;
	6807 :	11000011100001001111011111100101;
	6806 :	11000001011101100001100100111010;
	6805 :	10110100001101010101001010000001;
	6804 :	00110100100000100001100011001001;
	6803 :	11000000010111011010100111100110;
	6802 :	11000010000110100000000000100010;
	6801 :	11000011101110111101001111001011;
	6800 :	11000011100111101010110000010111;
	6799 :	11000001110000011010010101000010;
	6798 :	01000000100000100011110001010111;
	6797 :	11000011100010101101101101111011;
	6796 :	11000011110000001100000011011011;
	6795 :	11000100000100100101111001011111;
	6794 :	11000100000011011010110000011011;
	6793 :	11000010100001110010010001111110;
	6792 :	11000011011111101010110010101001;
	6791 :	01000010000101000011010010000101;
	6790 :	11000011110100100111101011010010;
	6789 :	01000011100000010000011110011001;
	6788 :	01000011111100101001110011101000;
	6787 :	01000100011000010111111110000110;
	6786 :	01000100010001001011010011110101;
	6785 :	01000100010110000101101100111100;
	6784 :	01000100000110010110000001011111;
	6783 :	11000011100011110000000011100110;
	6782 :	11000011111101111000010011000011;
	6781 :	11000011110110110011100010110111;
	6780 :	11000100001011110001101001010111;
	6779 :	11000011011011110101010001111010;
	6778 :	11000001101000100101001111111011;
	6777 :	00110101000000011011100101011110;
	6776 :	10110101101101011111101010111001;
	6775 :	10110100000110011000100011011000;
	6774 :	11000010101101011101001011100110;
	6773 :	11000011110111001011101111011110;
	6772 :	11000011000111010000100101000011;
	6771 :	01000001101110011111000000100101;
	6770 :	11000011000001001100111110111100;
	6769 :	11000011100110111001101111000101;
	6768 :	11000011011110101001010110000011;
	6767 :	11000100001110001111000000000101;
	6766 :	11000100001100100111111010101010;
	6765 :	11000100000111000010100111010001;
	6764 :	11000011011110110010110000101111;
	6763 :	11000100000001100111100010001111;
	6762 :	01000011001111010110010101011110;
	6761 :	01000100010001010010010101000010;
	6760 :	01000100100111001000100110111101;
	6759 :	01000100011001000001001011101101;
	6758 :	01000100000011011101010001011101;
	6757 :	01000100010001000100100111011101;
	6756 :	01000100000011111011101000100001;
	6755 :	01000010100011000111010011001111;
	6754 :	11000100000100010110000000111000;
	6753 :	11000100001000101000010000001011;
	6752 :	11000011101001100110111111110000;
	6751 :	11000010100111111111000000111101;
	6750 :	11000001110001101001010111101100;
	6749 :	00110100000010010000101000100001;
	6748 :	00110011101001010000110111100011;
	6747 :	00110011110010100010011000011110;
	6746 :	11000010101111011110010101100100;
	6745 :	11000011010101101011001011101100;
	6744 :	11000011110110000111101010100101;
	6743 :	11000010111011110111010100011000;
	6742 :	11000100000010110101001111100110;
	6741 :	11000100001110011101011111001111;
	6740 :	11000100010101010110110000001001;
	6739 :	11000100100110111010011111010110;
	6738 :	11000100011010001101000000111101;
	6737 :	11000100001100011101000011011000;
	6736 :	01000011000101011011010011010110;
	6735 :	01000011011110011001101000000001;
	6734 :	01000011010111001100111000000110;
	6733 :	01000011100101000101101100001000;
	6732 :	01000100001001010111101010101100;
	6731 :	01000011000110000100011101011011;
	6730 :	01000011000011101100001100010100;
	6729 :	11000011110011011111011111100111;
	6728 :	11000010111000101000011111110010;
	6727 :	01000010010110101101001111010000;
	6726 :	11000100000100001010010111100001;
	6725 :	11000100000101110110011100010001;
	6724 :	11000011100000001000100111001101;
	6723 :	11000010000000110100010010001111;
	6722 :	11000001110000010111011011000011;
	6721 :	10110011110100100100110011101110;
	6720 :	10110100101010011111101111101010;
	6719 :	11000001001000010110000110010011;
	6718 :	11000010110110100100011110101101;
	6717 :	11000001111100010101000100110100;
	6716 :	11000011111001111000100111100110;
	6715 :	11000100000010110011110101011100;
	6714 :	11000011101110111011110100011010;
	6713 :	11000100001011100010111010110000;
	6712 :	11000100010100011000000011010111;
	6711 :	11000100000010011011011111000011;
	6710 :	11000100010100110111000010011000;
	6709 :	11000100000101010000110101110000;
	6708 :	11000011001000011000101000101111;
	6707 :	01000010111101001000001010001110;
	6706 :	01000100000101010110010000001011;
	6705 :	01000100001011101101110111100111;
	6704 :	01000010010010000100000001110110;
	6703 :	11000011101010101100011011000110;
	6702 :	11000011110111001010000111001110;
	6701 :	11000011000010000000001001100101;
	6700 :	11000100000010101001011110011110;
	6699 :	11000100001101110010101011000110;
	6698 :	11000100010000111001001000101110;
	6697 :	11000100000010010101011001010011;
	6696 :	11000011100001110100011000011000;
	6695 :	11000001100010101110111110110111;
	6694 :	11000001000101101001101010100100;
	6693 :	10110101000010110101111100010010;
	6692 :	10110101000101111100001001100001;
	6691 :	10111111101010101111110110100001;
	6690 :	11000010000101110101000100010001;
	6689 :	01000001000100110110000010110101;
	6688 :	11000011101101110111010111011011;
	6687 :	11000100000010001011101101011011;
	6686 :	11000011110111111010110101111011;
	6685 :	11000011111111000011111101000110;
	6684 :	11000100000011111110111000011111;
	6683 :	11000011011111100010000001000111;
	6682 :	11000100001110001100110000111101;
	6681 :	11000011110110000101010011011010;
	6680 :	11000010010111011100101010001110;
	6679 :	01000011001100111100111110101100;
	6678 :	11000000001100010100011001111000;
	6677 :	01000011111101110100010010010000;
	6676 :	01000011111100100111011100100111;
	6675 :	01000011111011110101011001100000;
	6674 :	11000100000001101111000001001011;
	6673 :	11000100010101110100110000001101;
	6672 :	11000100100000000100001001100001;
	6671 :	11000100011101100001101011101100;
	6670 :	11000100001101000010001011101010;
	6669 :	11000011101010111101111101001101;
	6668 :	11000011101111000111110000001110;
	6667 :	11000010100010101001111100111110;
	6666 :	00110100111110000001000000110110;
	6665 :	10110100100111011101110001100000;
	6664 :	10110101001101110111001110100011;
	6663 :	11000001000111010010111100000010;
	6662 :	01000001100000001001110111110100;
	6661 :	01000010010011001000011000111000;
	6660 :	01000011100011101011000101010111;
	6659 :	01000011101111101100100110100001;
	6658 :	01000011101111001110110101101101;
	6657 :	11000010100110111111110111001100;
	6656 :	01000011001111001011010010011110;
	6655 :	01000011010100111110100000011101;
	6654 :	11000100001100111111010010101001;
	6653 :	11000011111001110111100101110011;
	6652 :	01000010000001010101110010111100;
	6651 :	01000100001001011010101100100111;
	6650 :	11000011010110010100001000000010;
	6649 :	01000100010101010000011010100100;
	6648 :	01000100010010001011011001101001;
	6647 :	01000010100110101110110001111101;
	6646 :	11000100001001110100101110000101;
	6645 :	11000011110101101010000101011111;
	6644 :	11000011010010110101000111000001;
	6643 :	11000011100010111010001001000000;
	6642 :	11000001110010101001111010110010;
	6641 :	01000010100011010010010011101100;
	6640 :	11000011100011110101101111001010;
	6639 :	11000010100111101000110011101000;
	6638 :	11000000011100001011001110110010;
	6637 :	10110101001010111100010011001010;
	6636 :	00110100011100001010101101110001;
	6635 :	00111111101110001000101110010010;
	6634 :	01000010111111000100100001111001;
	6633 :	01000011011001110011000000010111;
	6632 :	01000100100000111101001011010011;
	6631 :	01000100100011010101100110111011;
	6630 :	01000011111100101001110110000110;
	6629 :	01000100001110110011011101101000;
	6628 :	01000100000010010100010110111011;
	6627 :	01000100000010111101100001100011;
	6626 :	11000011000111000101011101100111;
	6625 :	01000010110010100110111000101001;
	6624 :	01000011000010110001111010110000;
	6623 :	01000010101000110001100110000010;
	6622 :	01000011100001100010110100000010;
	6621 :	01000011110110100000000100010010;
	6620 :	01000011110110011111011101001101;
	6619 :	01000010000100010001100010110010;
	6618 :	11000011101100011011110101001010;
	6617 :	11000010011111010101001010001001;
	6616 :	11000001100111010001101000111011;
	6615 :	11000010010110010100100100110011;
	6614 :	01000011100000101010111100100000;
	6613 :	01000011101111011010001100111101;
	6612 :	11000011001011111100111000101011;
	6611 :	11000010001110011011101010110011;
	6610 :	11000001011001110101011001001100;
	6609 :	10111110110101100000010010011010;
	6608 :	00110101010010010001010110011100;
	6607 :	01000001100000001001111110001001;
	6606 :	01000011000000010001111000111101;
	6605 :	01000010110111100001001110101110;
	6604 :	01000100010011110000001101110001;
	6603 :	01000100000100110000101011011111;
	6602 :	01000100001010010110101001010001;
	6601 :	01000011100000011011111010110110;
	6600 :	11000010101100011101110010110110;
	6599 :	01000001101011111111010111010100;
	6598 :	11000010110011111101100001100001;
	6597 :	11000100000111010010011001101101;
	6596 :	11000100000010000100001000000011;
	6595 :	11000100000011101011111000001110;
	6594 :	01000011100000110110100111110101;
	6593 :	01000100001101101101101101001001;
	6592 :	01000100011001111111001100100111;
	6591 :	01000011110101010001001000110100;
	6590 :	01000100001010101001111111100101;
	6589 :	01000100000100110101100100011111;
	6588 :	01000100010010000010011100001111;
	6587 :	01000100001010101001101110001100;
	6586 :	01000011110010111100001101000101;
	6585 :	01000011010010011001001000110100;
	6584 :	11000010111011100010111100000111;
	6583 :	11000010110001010010101011110000;
	6582 :	11000001110100001101101110001101;
	6581 :	11000000000111100111010010101011;
	6580 :	00110101010101011110111110011100;
	6579 :	11000010001111011100010011110111;
	6578 :	11000011001000010101011000010001;
	6577 :	11000100001001011101001001101010;
	6576 :	11000100000001100100110001101101;
	6575 :	01000011011110100110111100100011;
	6574 :	01000100000000111010111110001010;
	6573 :	01000100000001011110100010111000;
	6572 :	01000011001000011100111100111011;
	6571 :	01000100001111110101101010111110;
	6570 :	11000001011011001111010010101011;
	6569 :	11000011110000111011110110000111;
	6568 :	11000100000000111101000000110011;
	6567 :	11000100011111011111110001110110;
	6566 :	11000011110010001001100001011110;
	6565 :	11000001110001000100010011001110;
	6564 :	01000011101111001110000101100110;
	6563 :	01000011111001111011000011011011;
	6562 :	01000100010110110101001010010010;
	6561 :	01000100000110011010011100001110;
	6560 :	01000001111111010011111110010001;
	6559 :	01000011101100011001010111011011;
	6558 :	01000011111110010100010011000101;
	6557 :	01000010101110111000011100010100;
	6556 :	01000010110001101111001101100101;
	6555 :	11000001111101111001010100010001;
	6554 :	11000010000010001110011100101101;
	6553 :	11000000011010111010100101001011;
	6552 :	00110100111001010111000100011010;
	6551 :	11000011001100001001010011100001;
	6550 :	11000010001011000001100010000001;
	6549 :	11000010111111110001001101101000;
	6548 :	11000001000000011110110011101001;
	6547 :	01000100010000110000100100111110;
	6546 :	01000100011000001011110011011010;
	6545 :	01000100010010010010111110110001;
	6544 :	01000011100111111001110001101001;
	6543 :	01000000101101011111111001101011;
	6542 :	11000011110011110111110101010111;
	6541 :	11000011001100111011000000110110;
	6540 :	11000011101010100111111101000000;
	6539 :	11000100011111001110101011001110;
	6538 :	11000011011110110000101111000001;
	6537 :	11000011010000001001010110000111;
	6536 :	11000011001011101101100111111111;
	6535 :	01000100000000101011000101100000;
	6534 :	01000011101100000010000010000011;
	6533 :	01000011010011011010000011111111;
	6532 :	01000011100100111111000001001101;
	6531 :	01000010110110101011110111100111;
	6530 :	01000010111111100011100001011110;
	6529 :	01000010110011010110101001100001;
	6528 :	11000001101011101101101010111011;
	6527 :	11000001110000000010101100011101;
	6526 :	11000010001001010100110101111101;
	6525 :	11000001000101101111110010111111;
	6524 :	10110100100100000110110010010100;
	6523 :	01000010000011101000001011000100;
	6522 :	01000011000011010110000111101000;
	6521 :	11000010011011000100110100010110;
	6520 :	01000011111100010110001011011010;
	6519 :	01000100011010001011111111111100;
	6518 :	01000100010000001101010100111010;
	6517 :	01000011100001111010111000110101;
	6516 :	01000011100110001000110110100000;
	6515 :	11000010100011100111111100101010;
	6514 :	11000010110111110101001000001111;
	6513 :	11000011010110100110111101101011;
	6512 :	01000011001010001110001011001001;
	6511 :	11000100010101010111010111101111;
	6510 :	11000100010000101110110011000001;
	6509 :	11000011011011000110011111000000;
	6508 :	01000011101011111010011000111000;
	6507 :	11000011000001111110011001000101;
	6506 :	01000010011110010001111111100111;
	6505 :	01000100000100000000000100100000;
	6504 :	01000011011011101010001011011000;
	6503 :	01000011110011101110000000100100;
	6502 :	11000010110001011101111000010110;
	6501 :	11000010000000011111011111100110;
	6500 :	01000001101111100011000110010110;
	6499 :	11000001010101000110011100001101;
	6498 :	11000000001111111000111110000110;
	6497 :	11000001001101011100001010111111;
	6496 :	00110011101001001011111110011001;
	6495 :	11000010000001001011001111010001;
	6494 :	01000010001001000010111011010000;
	6493 :	11000011010011010000101101111100;
	6492 :	01000011001100101001100011010010;
	6491 :	01000100000110010111000000110110;
	6490 :	01000011000011100101000001100011;
	6489 :	01000100000100000000111101011101;
	6488 :	01000000000011000011011001001011;
	6487 :	01000011000100010011000010110000;
	6486 :	01000011110111011000010010111111;
	6485 :	11000100000101100110101111000000;
	6484 :	11000011110000101100010101001111;
	6483 :	01000010001000100100010001100011;
	6482 :	11000100000000000011111010111101;
	6481 :	11000010000010101010000110100110;
	6480 :	11000011011111011000110010011011;
	6479 :	11000011010101000101011101101101;
	6478 :	01000011011110111011101100110011;
	6477 :	01000011010011110010100100110010;
	6476 :	01000011011101001000100011000101;
	6475 :	11000010111000000111010111010111;
	6474 :	11000100000000111111110101001011;
	6473 :	01000001101110101100011111100000;
	6472 :	01000001001101110001010000101100;
	6471 :	11000010001100110101100010111011;
	6470 :	11000000111010000011101101001100;
	6469 :	11000001001001101010010110010011;
	6468 :	10110100110111101111000010110011;
	6467 :	11000010010011010100001011100000;
	6466 :	11000001100110110011110000010101;
	6465 :	01000010111111110011100100010011;
	6464 :	11000011000101110000010100110000;
	6463 :	01000011000111110000011101101111;
	6462 :	01000011101101001000111101010110;
	6461 :	01000010111110110000111000001001;
	6460 :	11000011001001101110001001100100;
	6459 :	01000100000001010101110000011010;
	6458 :	11000011101011010111001011111101;
	6457 :	01000011100000000011010000000111;
	6456 :	01000010101100111111100011001001;
	6455 :	01000011110010100111111110000000;
	6454 :	01000010011011100111111111110101;
	6453 :	01000011100000010101000011001100;
	6452 :	01000011101110011001111000111100;
	6451 :	11000001101110100100100110100101;
	6450 :	11000011111101111110010111001111;
	6449 :	11000100000010010101111110010001;
	6448 :	11000011000001101010111100101011;
	6447 :	11000011110100001110101000101101;
	6446 :	11000011011110101110111101000001;
	6445 :	11000010011000000000011100011111;
	6444 :	11000010100011110001100111110001;
	6443 :	11000010010011111010000001001011;
	6442 :	11000001011101001101011001111100;
	6441 :	00110100100000101010011111111010;
	6440 :	10110101011100100010000000000001;
	6439 :	11000000010001101010000111111111;
	6438 :	10111110101011010100001000100100;
	6437 :	01000010010110111101011110111010;
	6436 :	11000011001111010010110000111111;
	6435 :	11000100001011000001101000011100;
	6434 :	11000011100001100000011001010101;
	6433 :	11000011011111110011111110101010;
	6432 :	11000010011001100001110001000010;
	6431 :	01000010100111110101110101101111;
	6430 :	01000100000001011011011110111111;
	6429 :	01000100001011101000110100000000;
	6428 :	01000011111101111000110011101011;
	6427 :	01000100001000011011101011000110;
	6426 :	01000011011001001000000001111101;
	6425 :	01000011011000100001100001110000;
	6424 :	01000011100010111011101111110001;
	6423 :	01000011100011111010111000100101;
	6422 :	11000100000010111101010010000110;
	6421 :	01000010111000111110000111111111;
	6420 :	11000011100101001011101111101110;
	6419 :	11000011010010111100010000110010;
	6418 :	11000011010101000010001000100101;
	6417 :	11000011010010000001011110111010;
	6416 :	11000010100011101111111100001011;
	6415 :	11000001011000100001111111000001;
	6414 :	00110100100101011110010100001110;
	6413 :	00110100111000001101011001000011;
	6412 :	10110101100000111011110110000101;
	6411 :	01000000001001111011000010001100;
	6410 :	01000010001010011110111110000110;
	6409 :	01000010110010011100100001011101;
	6408 :	01000011000011010111101100011011;
	6407 :	11000011100100111101010000100000;
	6406 :	11000011100101010010001011101011;
	6405 :	11000010110000010000000000000000;
	6404 :	01000010011000000000110000010111;
	6403 :	11000010101100000011000010010101;
	6402 :	11000011001001000100101100110110;
	6401 :	11000011000100111111110111010101;
	6400 :	01000001001101101010000111010000;
	6399 :	01000010101010010100100100101001;
	6398 :	01000010111110000011111101001100;
	6397 :	11000010000001010100101010101101;
	6396 :	01000011011001010100001101110111;
	6395 :	01000011001101001001010110101100;
	6394 :	01000010001100100000001101011010;
	6393 :	11000010010110010000110110000101;
	6392 :	11000010101101001101001011110011;
	6391 :	11000010111000101001001001001111;
	6390 :	11000010111011101011001100010100;
	6389 :	11000010100010100000101010100001;
	6388 :	11000001001111100110110110000110;
	6387 :	10110011100101111001100100000101;
	6386 :	01000000000001100100101000010101;
	6385 :	10110101010011111101101011100110;
	6384 :	10110101001001001001011110010011;
	6383 :	00110100101000010010011100011100;
	6382 :	11000000100110101110111001001111;
	6381 :	11000001000101101001101111100101;
	6380 :	11000001101001111100010111110110;
	6379 :	01000010101000001101101001011101;
	6378 :	01000010111110010010001101011010;
	6377 :	01000010101101010101110101000110;
	6376 :	11000011000011111000111101111110;
	6375 :	11000011011001011101100111000001;
	6374 :	11000010011110011010101011010010;
	6373 :	11000011001010001111001100010000;
	6372 :	11000011111001000011011000011100;
	6371 :	11000011110111101110010010010000;
	6370 :	11000011110000100100100011011111;
	6369 :	11000011111110001100101011000100;
	6368 :	11000011110001110001110011000101;
	6367 :	11000011011101111100001101000100;
	6366 :	11000010111100011011111110100110;
	6365 :	11000010100111101101011111111100;
	6364 :	11000010000001011110110001100111;
	6363 :	11000010000000101100100010100010;
	6362 :	11000001101000010011100100110100;
	6361 :	11000000101110100110010000010000;
	6360 :	10110100001001000110110011100000;
	6359 :	10110101010011000101101011101001;
	6358 :	10110100110001001010100010011110;
	6357 :	10110101001001111110100100001001;
	6356 :	00110101001010010100111100110001;
	6355 :	00110011111000111000111000001100;
	6354 :	00110101011100000011101011000010;
	6353 :	11000000110110100000100000010110;
	6352 :	11000001001010000111101010011100;
	6351 :	10111111100011101011011000101101;
	6350 :	00110101011111110111011100111100;
	6349 :	11000001000101111101110100001101;
	6348 :	11000001100000101001011010111000;
	6347 :	11000010001111100101110001101111;
	6346 :	11000001100110001000111001111101;
	6345 :	11000001010011011010110000011000;
	6344 :	11000010000010000110110010011001;
	6343 :	11000010001000011000110100001100;
	6342 :	11000010000000001000101100000101;
	6341 :	11000010000011100010100101000001;
	6340 :	11000001101100000010000100010001;
	6339 :	11000010011001011001001011100011;
	6338 :	11000010100001001001100111110011;
	6337 :	11000001110101000100100101111000;
	6336 :	10111111101010101101001010000011;
	6335 :	10110100001111110110101110110000;
	6334 :	00110100011010010010111011010011;
	6333 :	00110011000101111000111110010011;
	6332 :	00110010111111010111001010001011;
	6331 :	00110100110111110010111011101110;
	6330 :	10110100010001110011111011100100;
	6329 :	00110100000000000000010001101001;
	6328 :	10110101100010011111000111101001;
	6327 :	00110101000111110010101000001110;
	6326 :	00110010011010001101101010100011;
	6325 :	10110101000111111101011001000011;
	6324 :	00110101000110110000000001111010;
	6323 :	10110100000001000010111010011100;
	6322 :	00110100101111110100000011000111;
	6321 :	00110100011010001011101011101110;
	6320 :	10110100001010000100010110100110;
	6319 :	00110100110101110100010100011000;
	6318 :	10111101011111101000101110110011;
	6317 :	10111111001011110000000000011110;
	6316 :	10111111001001101010101011011000;
	6315 :	10111101100101111000010000111000;
	6314 :	00110100100011011001010001100100;
	6313 :	10110101100110111001000001100011;
	6312 :	00110011100010001000000011001011;
	6311 :	00110100101001110011011011001110;
	6310 :	00110101000010100000010001110101;
	6309 :	00110011010010111111111000000000;
	6308 :	10110100001100100011110000000111;
	6307 :	10110100001110000111100000010001;
	6306 :	10110101001111110100100001010101;
	6305 :	10110011110110100010110000110110;
	6304 :	10110101001000011110011111110100;
	6303 :	00110100001010000010100001110011;
	6302 :	00110011100101011110000101011101;
	6301 :	00110101001011001001000100101111;
	6300 :	10110101000000101010000101010100;
	6299 :	10110100010011000101111010011011;
	6298 :	00110101010110010110101000010000;
	6297 :	10110011110011110101110011010100;
	6296 :	10110100111001001011100101010101;
	6295 :	00110100111111000110100010011101;
	6294 :	10110100100101001001101010100000;
	6293 :	00110100100100101111100100110000;
	6292 :	00110101000101101101001110100100;
	6291 :	00110100111000001100110101101100;
	6290 :	10110101100110011010101101110100;
	6289 :	10110101001000101101101101110000;
	6288 :	00110010011010111101001000111010;
	6287 :	00110101001011101110011001100110;
	6286 :	00110100100101011101011100010111;
	6285 :	10110011100011110101000111011111;
	6284 :	00110100011111111101100101110101;
	6283 :	10110101010000010101001101110010;
	6282 :	10110011011101001100101001110000;
	6281 :	10110100101010000010001111011101;
	6280 :	00110101011101100101001111001101;
	6279 :	00110100111111111111010101101000;
	6278 :	00110100010100000110011011001101;
	6277 :	10110100100101010111011010001010;
	6276 :	10110100000001111000000000110111;
	6275 :	00110101001000101010100101101100;
	6274 :	10110100011000000001001111001010;
	6273 :	10110101001101111001100011001101;
	6272 :	10110011111011110000010011111001;
	6271 :	00110101000100101010000110100101;
	6270 :	10110101010101111000000101110111;
	6269 :	10110011111111110011100110110111;
	6268 :	10110101000001000000011100011110;
	6267 :	01000010000000110010110011101010;
	6266 :	01000011000111011011111000011010;
	6265 :	01000010010111100011010010110010;
	6264 :	01000001000110000100110011001100;
	6263 :	01000011000000111101111000010000;
	6262 :	01000011010001110100100001110001;
	6261 :	01000011000100001101101111010111;
	6260 :	01000011000010100001010110101110;
	6259 :	01000011011100111010010000010001;
	6258 :	01000011101010010110101100111011;
	6257 :	01000011011101011010001001101001;
	6256 :	01000010101010110110110011110010;
	6255 :	01000010101111100011010111110110;
	6254 :	01000011000110110100101001100111;
	6253 :	01000001011010110001010110100100;
	6252 :	01000001110010011101001100010111;
	6251 :	01000010000111000110100001101010;
	6250 :	01000001010010111011111001001010;
	6249 :	10110101011001100000001001010101;
	6248 :	00110101001111001000111010010100;
	6247 :	10110011101100000011111111101101;
	6246 :	00110101001100001001101001010010;
	6245 :	10110100111111111010101011111011;
	6244 :	10110101001111100010000010101001;
	6243 :	00110100011000101101000010101111;
	6242 :	10110100100110001000000100010011;
	6241 :	00110100110010000001100101011001;
	6240 :	00110101001001100100101010101001;
	6239 :	11000001000000110101100001111111;
	6238 :	01000010110110000110110000100111;
	6237 :	01000010011011111000110101111010;
	6236 :	01000010100010111101000110100011;
	6235 :	01000100000010010101011010010010;
	6234 :	01000011111000011010110000010000;
	6233 :	01000100000000101100011100101111;
	6232 :	01000100000010000110011000010100;
	6231 :	01000100000110001011100100111110;
	6230 :	01000011110100001010011111001111;
	6229 :	01000011101100110111101100101001;
	6228 :	01000011001011101011011110111001;
	6227 :	01000011010010011001110100101100;
	6226 :	01000011110011010000010111000100;
	6225 :	01000011111111100000111011110100;
	6224 :	01000011110111011001100010101100;
	6223 :	01000010101110111101110111001100;
	6222 :	11000010101011101011111111000000;
	6221 :	01000000110010111110011100001000;
	6220 :	01000000000010001100100010011000;
	6219 :	10110100111110101010010011101101;
	6218 :	10110100110111000010100011110110;
	6217 :	00110101001001011111101011111100;
	6216 :	00110011100010001111010111010101;
	6215 :	00110100110100111001010100000010;
	6214 :	10110011110100101111001010101111;
	6213 :	00110101000011111001000011001010;
	6212 :	10111111111101000111011010100001;
	6211 :	11000010010001101000010001001000;
	6210 :	11000010001010111110111000100101;
	6209 :	01000001010011011110011110110111;
	6208 :	11000010111111111100111001000111;
	6207 :	01000011100101001010001011010011;
	6206 :	01000011011011011010110001100000;
	6205 :	01000011101110011011101100100110;
	6204 :	01000011010111110001100000110100;
	6203 :	01000011111110000011010111011110;
	6202 :	01000011011100011111001011000101;
	6201 :	01000010101000000000111110010101;
	6200 :	01000011110111100001001110000110;
	6199 :	01000011100010111000111001100100;
	6198 :	01000011000000010110101100100101;
	6197 :	01000100001101111011100111111100;
	6196 :	01000100000111000001100011101100;
	6195 :	01000011110000000111101010111001;
	6194 :	01000011000101000100100001010100;
	6193 :	01000011011100011011110110000100;
	6192 :	01000011100101110001000110111100;
	6191 :	01000010110000101110000010001111;
	6190 :	11000000100001000100011111100110;
	6189 :	00110010110000010000011010101111;
	6188 :	00110101000010001100111101111001;
	6187 :	00110101011001100001110111011001;
	6186 :	10110011110101101111011001001110;
	6185 :	11000001101100000001110001001000;
	6184 :	11000010101111100001000001111011;
	6183 :	11000011100101000111100100000100;
	6182 :	11000011110111000000110100111000;
	6181 :	11000011101000111000011010000110;
	6180 :	11000011101001111100111101101000;
	6179 :	11000011101001011010111101101110;
	6178 :	11000100000001011110110100100110;
	6177 :	11000001000000000011100110111010;
	6176 :	11000010001011101010111011100111;
	6175 :	11000010100100000101111001110100;
	6174 :	01000011100011101001110000001010;
	6173 :	01000011010011011110010100001101;
	6172 :	11000010000111000110001001010010;
	6171 :	01000001001001010111011000110111;
	6170 :	11000010011111011000010011101111;
	6169 :	01000011100111110110110100100111;
	6168 :	01000011101110010000111011101001;
	6167 :	01000011100101001011111000000111;
	6166 :	01000011111111001111101001110110;
	6165 :	01000011110100110110100111010101;
	6164 :	01000011000100101000001000001000;
	6163 :	01000010001000011100001000110011;
	6162 :	11000010001001110001010101011110;
	6161 :	00110101000101110110110101000000;
	6160 :	10110011011010010001100101110000;
	6159 :	00110101010010000111111010011111;
	6158 :	10110100001110100110000011111001;
	6157 :	11000001111110010001010101001010;
	6156 :	11000010111001000011000110001001;
	6155 :	11000011101100110110100000011101;
	6154 :	11000100000100100110101010011111;
	6153 :	11000100001010010100011101111011;
	6152 :	11000100010001111011110110000110;
	6151 :	11000100010011001111100001110000;
	6150 :	11000100000001101011001010011011;
	6149 :	11000011100111001010011011110000;
	6148 :	11000010101101000110011000010001;
	6147 :	11000010001101100010100101101000;
	6146 :	11000010011011110101100100110100;
	6145 :	11000011011011000111100110010111;
	6144 :	11000011101000110000100011001000;
	6143 :	11000100000001110111111010010100;
	6142 :	11000011001000000111110110101100;
	6141 :	11000011100000111101100100110000;
	6140 :	11000011010001010100001101001100;
	6139 :	01000011111101010000000011101111;
	6138 :	01000011100100010001010010011100;
	6137 :	01000001011001110001111100010101;
	6136 :	11000010110100111001101110110000;
	6135 :	11000010111111110011011010001111;
	6134 :	11000010011100001001011100011100;
	6133 :	10110100111100110010011000001100;
	6132 :	00110101000000011011001101001010;
	6131 :	10110011110101100111101110001010;
	6130 :	10111111101101110001110001110110;
	6129 :	11000001111111011111100100100101;
	6128 :	11000010010011111100110001101011;
	6127 :	11000011100111101100000101111000;
	6126 :	11000100001001100111010101001011;
	6125 :	11000100000011111000000101101110;
	6124 :	11000100001111100100001110100110;
	6123 :	11000100001110010001001000000100;
	6122 :	11000100000100101110100101100101;
	6121 :	11000011111010100111101011101110;
	6120 :	01000010110101010001100111000010;
	6119 :	01000001000110101100011100011111;
	6118 :	11000011101010100101000110110111;
	6117 :	11000100000111011100100100000010;
	6116 :	11000011001010111101101001110010;
	6115 :	11000011110000100001010010101100;
	6114 :	11000100000001011111001000111001;
	6113 :	11000011100111011011101100101101;
	6112 :	01000010001110100101110111000111;
	6111 :	01000010100111110011011110110100;
	6110 :	11000011101010011001001000011111;
	6109 :	11000011010000111100110111010101;
	6108 :	11000011100011000110011010110000;
	6107 :	11000011000111111010110100010101;
	6106 :	11000010011001101101110100100011;
	6105 :	00110010101011101100011100111101;
	6104 :	00110100001010101001101001111011;
	6103 :	00110101100010111100101100010100;
	6102 :	11000001010111100000010110111010;
	6101 :	11000010001011101110000110110111;
	6100 :	11000010010111001100100100111011;
	6099 :	11000011101110001000011010000001;
	6098 :	11000100001110011110100000010111;
	6097 :	11000100001001010010000110111011;
	6096 :	11000100010001011110010100101111;
	6095 :	11000100010101001101101111110000;
	6094 :	11000100000010101101010011010011;
	6093 :	11000100000001011010101010100100;
	6092 :	01000001001101101010110110110100;
	6091 :	11000011000101010111010010101110;
	6090 :	11000011110110111011000101110101;
	6089 :	11000011101000110011111010010110;
	6088 :	01000001100110111000000001100011;
	6087 :	11000011011110001011100101010011;
	6086 :	11000100000011011110001100010001;
	6085 :	11000011101100110011100001111001;
	6084 :	11000010011010100111010101000111;
	6083 :	11000100010100110000101010100111;
	6082 :	11000100001001101010100110110000;
	6081 :	11000011110111110101111110000100;
	6080 :	11000011110001011011000100001110;
	6079 :	11000011000111010101111110001001;
	6078 :	11000010010110101001100001111100;
	6077 :	00110001101000011001000011010000;
	6076 :	10110101000111100001100011001011;
	6075 :	10110011100111001001010111010000;
	6074 :	10110011101110111101101011100011;
	6073 :	11000010100001101111110011001101;
	6072 :	11000001100001111111010011111101;
	6071 :	11000011100111101001000100010011;
	6070 :	11000100010010010011111101101001;
	6069 :	11000100100000100000111010010001;
	6068 :	11000100011100101001110101011001;
	6067 :	11000100001011110011100111000000;
	6066 :	11000100010101011100010000101011;
	6065 :	11000100001001000010010110111100;
	6064 :	11000100000010010100011000000000;
	6063 :	11000011001001010010001111001110;
	6062 :	01000100000010101100001100101111;
	6061 :	01000011101111000001011011001011;
	6060 :	11000010111100010110000101111010;
	6059 :	11000100000110101101011100101001;
	6058 :	11000100000110011101100111100011;
	6057 :	11000011001010001111110010010101;
	6056 :	11000011110001000110111011001011;
	6055 :	11000100000111110111001101000011;
	6054 :	11000100000101001111011110100110;
	6053 :	11000011110101110011100100111111;
	6052 :	11000011110101111001111110011011;
	6051 :	11000011001010110010000010110111;
	6050 :	11000001000010101100101001110001;
	6049 :	00111110100101100000001011111111;
	6048 :	00110100100011000111110101100111;
	6047 :	00110011100100111001100000110101;
	6046 :	00110100101101010101011011110011;
	6045 :	11000010100101010010001101101010;
	6044 :	01000001000111010001110011100010;
	6043 :	11000011101001000000111001010001;
	6042 :	11000100001111100010000101001000;
	6041 :	11000100001111001010100101001011;
	6040 :	11000100000111101011101110011101;
	6039 :	11000011100000011000100001100000;
	6038 :	11000100010000111111111011001000;
	6037 :	11000100000111010011100010110100;
	6036 :	11000100001100010110011101111100;
	6035 :	11000011110101110110100011011110;
	6034 :	01000011101000110010010101100111;
	6033 :	01000001011010010101001000001001;
	6032 :	11000000111001010001001000101110;
	6031 :	11000011110100101010110000001110;
	6030 :	11000011100101110010011010101111;
	6029 :	11000011100001011111110100111000;
	6028 :	11000011101000111000000001101111;
	6027 :	11000100000001110101100110111000;
	6026 :	11000011101010001001110000011100;
	6025 :	11000011100110111110111101111101;
	6024 :	11000011100010111100010010001101;
	6023 :	11000011001100011001100000101110;
	6022 :	01000010101010101111101100110101;
	6021 :	00111111110000111101100101000011;
	6020 :	10110101101001110001000110000001;
	6019 :	00110100111101100010001101001000;
	6018 :	01000010010010110010101111010011;
	6017 :	11000001101010000010110011011000;
	6016 :	11000010011011000110010010000100;
	6015 :	11000011010110011110000000001110;
	6014 :	11000011100111011001011110100010;
	6013 :	11000011001001001011111110101001;
	6012 :	01000000110000011010111001110010;
	6011 :	11000010111000001110010010110011;
	6010 :	11000010110110111001100101001001;
	6009 :	01000010001111011001100010101110;
	6008 :	11000011100111111011100101010101;
	6007 :	01000010110111111001101001010100;
	6006 :	01000010101001110000100111100111;
	6005 :	01000010100000011000110001011011;
	6004 :	11000010101100100010001110101010;
	6003 :	11000011011100011010001010110001;
	6002 :	11000100000010110000010101000100;
	6001 :	11000100000010111110111101100110;
	6000 :	11000011111001000100010010010001;
	5999 :	11000100001001000011100110110101;
	5998 :	11000100000110010110100101111011;
	5997 :	11000011010111010010100110011111;
	5996 :	11000011001000000111011010001111;
	5995 :	11000011001001001100001010110100;
	5994 :	01000010100010000010000001101110;
	5993 :	00110100101101110000010110000111;
	5992 :	10111111110110011101011111001010;
	5991 :	00110100111111010100100101100111;
	5990 :	01000010010001100110110110101101;
	5989 :	01000001111000111101101001110111;
	5988 :	01000011100110001111011101101110;
	5987 :	01000011000100000110100011010101;
	5986 :	01000010100100111011000000001110;
	5985 :	11000001101101101111110001010110;
	5984 :	01000001010011010001011110100110;
	5983 :	01000010111101011100000110011111;
	5982 :	11000001111100011101001010010100;
	5981 :	01000010010001011010100101001011;
	5980 :	01000011001000011001111110110001;
	5979 :	01000011011001010010010111000010;
	5978 :	01000010111010110011011110100001;
	5977 :	01000011100100110111000000100100;
	5976 :	11000001110101100010000010011000;
	5975 :	11000011110001001100011111100010;
	5974 :	11000100010010011011011111011000;
	5973 :	11000011110010101110111110011001;
	5972 :	11000011000000011000000001001000;
	5971 :	11000011110111101111111101001110;
	5970 :	11000011110100111010011010101010;
	5969 :	11000010011100101000010001110011;
	5968 :	01000010101110011100100011001001;
	5967 :	11000011000100110000011101010000;
	5966 :	01000001010001111010001011010010;
	5965 :	10111111010011001111101100000001;
	5964 :	10110100001100111111111001110111;
	5963 :	00110100100001101111110001110111;
	5962 :	11000000110001001010011011000011;
	5961 :	11000011010100111110100101011010;
	5960 :	11000010111110111011111010010110;
	5959 :	01000010010010010010100001111000;
	5958 :	01000010101110000110010011000010;
	5957 :	01000011010011100101110100001100;
	5956 :	01000011100010011000110000000011;
	5955 :	01000100001011111110111000000101;
	5954 :	01000011001000010111000101011000;
	5953 :	01000100000110110111101000111101;
	5952 :	01000011010011010100011111100101;
	5951 :	01000011010001100010000001010011;
	5950 :	11000100000001001100000001011011;
	5949 :	11000011110101111010001000001010;
	5948 :	11000011110100101101011111111001;
	5947 :	11000100101101110110011010111111;
	5946 :	11000100010010110010010000110101;
	5945 :	11000011101101110110010011101111;
	5944 :	11000011010011001000100010010011;
	5943 :	01000010101100110111101111010101;
	5942 :	11000010111110010110001011111100;
	5941 :	11000010111010011101110011010111;
	5940 :	01000010111110110010110101101101;
	5939 :	11000010000100000011110001000100;
	5938 :	01000000100111101001010010010111;
	5937 :	11000000100010000000111110010010;
	5936 :	00110100110010011110001001001101;
	5935 :	00110100011100001001111100010110;
	5934 :	11000010000010011110000011110110;
	5933 :	11000011001101011011111000100010;
	5932 :	11000010011011011001110101101101;
	5931 :	01000011100110011111100110100101;
	5930 :	01000100001001000110010110101011;
	5929 :	01000100000101001111011010001110;
	5928 :	01000100010001100110111101000001;
	5927 :	01000100010010010100001110101011;
	5926 :	01000100010101011101000000110101;
	5925 :	01000100100010100010000101010011;
	5924 :	11000011100000101101010110000101;
	5923 :	11000010010110000101011111010110;
	5922 :	11000011101111000100000010001001;
	5921 :	11000100001111000001011110100000;
	5920 :	11000100100101110101011110100001;
	5919 :	11000100100110100010011010000001;
	5918 :	11000011110001001001101100010110;
	5917 :	11000100010011000100101011011110;
	5916 :	11000100000111010101010101111100;
	5915 :	11000011101001101011001110001101;
	5914 :	01000010000110010110110100011001;
	5913 :	11000010010110000001000011100101;
	5912 :	11000011000000101011001000110100;
	5911 :	01000010000101011001110000000110;
	5910 :	01000001100010000011110110101000;
	5909 :	10110100110011001000101000011100;
	5908 :	10110011110111001011011111010010;
	5907 :	10110011100010001000000110000010;
	5906 :	10110100011011000110110010100110;
	5905 :	01000001000111100010011100101100;
	5904 :	01000010110110000000100100011111;
	5903 :	01000100000100000001010101101100;
	5902 :	01000011111001001111011111001011;
	5901 :	01000010111011000011010110110101;
	5900 :	01000011111110011111111111111101;
	5899 :	01000100011111111000011101100010;
	5898 :	01000100010011110011011000100001;
	5897 :	01000010000000001110011110001111;
	5896 :	01000011001110101001000101101000;
	5895 :	11000011111010011000011110110010;
	5894 :	11000010101001010110011010011001;
	5893 :	11000100100101101001011010001001;
	5892 :	11000100111100001001100011001100;
	5891 :	11000100100100010111100010101011;
	5890 :	11000011011000111101101101010011;
	5889 :	11000011110101011001001101010011;
	5888 :	11000011100000101101010100001000;
	5887 :	11000011011110000011100100100010;
	5886 :	01000010110111011000101111110001;
	5885 :	01000011110010011010010100000010;
	5884 :	01000010111010010010110000011011;
	5883 :	01000010110000010110101010101010;
	5882 :	01000010011101001011010010101101;
	5881 :	01000001101000110001101101000010;
	5880 :	10110101010110010011100111001101;
	5879 :	00110010101101011010111100010100;
	5878 :	00110100101101001001110111101011;
	5877 :	00111111001001001000011101011011;
	5876 :	01000010010101001110011111010000;
	5875 :	11000011000101010000100010101101;
	5874 :	01000010101101101110101101001111;
	5873 :	11000010011011111001001010001111;
	5872 :	01000010100011101111111000101001;
	5871 :	11000011100011000000010101001000;
	5870 :	01000011000010011111100000011100;
	5869 :	01000010001111011000110011010011;
	5868 :	01000010100110110000011000100011;
	5867 :	01000011000011100001001110110011;
	5866 :	11000010100001100010100001000000;
	5865 :	11000100111011100010001010110011;
	5864 :	11000100111110111010101001111011;
	5863 :	11000100010110110110010100101101;
	5862 :	11000000111000000000010010010100;
	5861 :	11000011101010000000100010000101;
	5860 :	11000011110101001100000010010110;
	5859 :	11000011001100011101110000101000;
	5858 :	01000011011110100100001010110011;
	5857 :	01000011101010000011000010001101;
	5856 :	01000100000111000100111101111100;
	5855 :	01000011110110000011101001010010;
	5854 :	01000011000101100101101110010011;
	5853 :	01000010011101000001100110110011;
	5852 :	00110100100000110111000100000111;
	5851 :	00110011100000111000011100001001;
	5850 :	10110101001100000100111000010011;
	5849 :	11000010000011100111000001010111;
	5848 :	11000011011000011110111110000001;
	5847 :	11000011100111101101111100010010;
	5846 :	01000011000000011011010000011010;
	5845 :	11000010101101001101110110101100;
	5844 :	01000011000001110111011011110010;
	5843 :	11000010111001010111011011010100;
	5842 :	01000100011011101101101001111101;
	5841 :	01000100001101111101111100101100;
	5840 :	01000011111101011000101011010100;
	5839 :	01000100000100001000011001100110;
	5838 :	11000011110100110000100000111110;
	5837 :	11000100100101101011001110011001;
	5836 :	11000100010010001110100101001010;
	5835 :	11000010111100010110110110111110;
	5834 :	11000011010001100001101100000001;
	5833 :	01000001101100000010001100010111;
	5832 :	01000100010001010000110111001001;
	5831 :	01000011110100110100010110101111;
	5830 :	11000010010010010010101010010010;
	5829 :	01000010101010001011001101110101;
	5828 :	01000100010011001100111011100101;
	5827 :	01000100001001111110110000001010;
	5826 :	01000011100111000000100000010101;
	5825 :	01000010110001010010010110000110;
	5824 :	10110100001011001011011110101111;
	5823 :	11000000010110000010100110101000;
	5822 :	11000001001010110111011101001111;
	5821 :	11000010110110010000101010111110;
	5820 :	11000011100010101111011001001000;
	5819 :	01000001010001000111101111011100;
	5818 :	01000100000000010101101011101101;
	5817 :	01000011111110011100111100101001;
	5816 :	01000011100000000001101100001100;
	5815 :	01000011110001100000111101110110;
	5814 :	01000100100000001010011101111011;
	5813 :	01000100000011111010000100100111;
	5812 :	01000100010001000100100001010001;
	5811 :	01000100010001000110111101000101;
	5810 :	01000011111111011110000100111001;
	5809 :	01000011000111100100111100111111;
	5808 :	11000011011111011101010101111101;
	5807 :	01000011100010110100111010010010;
	5806 :	01000011100011111110101001011011;
	5805 :	01000010001011001101010110010101;
	5804 :	11000011001011010011100001001001;
	5803 :	11000010011000101101010111010000;
	5802 :	01000001100001001000110100000010;
	5801 :	01000011011110111001010010010000;
	5800 :	01000100001111000001100001001110;
	5799 :	01000100000000111010111010011100;
	5798 :	01000011100001101000000101101101;
	5797 :	01000010011011000101100010001010;
	5796 :	10110100110101000101111110101110;
	5795 :	01000010001010100001010000010110;
	5794 :	01000010101110000110011101101001;
	5793 :	01000001010111010100000010011000;
	5792 :	11000011000000111101110111110111;
	5791 :	01000011001001111110010010001000;
	5790 :	01000011001100110100001101001101;
	5789 :	01000100001011010111001011110010;
	5788 :	01000011110001001101011000011111;
	5787 :	01000100000010111011011010000110;
	5786 :	01000100001100001000110000010101;
	5785 :	01000100001101001011000011010001;
	5784 :	01000100100010011000110100011111;
	5783 :	01000100010101001100000000000110;
	5782 :	01000100010101100110011001000011;
	5781 :	01000100000101010111001001111010;
	5780 :	11000011101010011011111101010110;
	5779 :	11000010100010011111000111111011;
	5778 :	11000010000111110100100110110110;
	5777 :	11000010000000000000111110101111;
	5776 :	11000011100101011110111011110000;
	5775 :	11000011000100001111000101001101;
	5774 :	01000010010101100100011110001101;
	5773 :	01000100000101010010110110001101;
	5772 :	01000100000010001111001011110010;
	5771 :	01000011110111010100010101011001;
	5770 :	01000011100000010001001010110110;
	5769 :	01000010101010011010000010010100;
	5768 :	10110100111101011000110011001111;
	5767 :	01000011001001101110100001101001;
	5766 :	01000010101100110000000001011011;
	5765 :	11000001010000011011000001000111;
	5764 :	01000010100001100011100100111100;
	5763 :	01000010100001000110111111010010;
	5762 :	01000010100110000001111011111001;
	5761 :	01000011110110000100110110001110;
	5760 :	01000010011011110101011111010000;
	5759 :	01000011110100001101100001001101;
	5758 :	01000011010101110000100100010101;
	5757 :	01000100001101110110101110111101;
	5756 :	01000100010001111100101101100101;
	5755 :	01000011110111101011010011100001;
	5754 :	01000100010110011110001001101010;
	5753 :	11000010010000110001111010111011;
	5752 :	01000100000000011100100110011010;
	5751 :	01000011010011011011001111111010;
	5750 :	11000010111000000010010101111111;
	5749 :	01000011110100100011000111101101;
	5748 :	01000011110011110011101101100010;
	5747 :	01000011011100001101001100010000;
	5746 :	01000100000011010111010001010010;
	5745 :	01000100000110000001110111100111;
	5744 :	01000011101011011000000111110100;
	5743 :	01000100000010101111000011111110;
	5742 :	01000011000101100110000010001101;
	5741 :	01000010101111101001010111111100;
	5740 :	00110011111100101011110100010100;
	5739 :	11000001000011010100100110101101;
	5738 :	11000010010011100110011101110110;
	5737 :	11000010110100010110110011000101;
	5736 :	11000001101001001111101101100101;
	5735 :	01000011001101011011101001101111;
	5734 :	01000011000100100001110110111111;
	5733 :	01000010110101011110111010010001;
	5732 :	01000011101010001011011000100001;
	5731 :	01000011100011100011011011001000;
	5730 :	01000011111111100010101101101101;
	5729 :	01000100000010111000100111111011;
	5728 :	01000011111101001001001000111001;
	5727 :	01000100001000101011000111101011;
	5726 :	01000011101000111011010001101010;
	5725 :	01000000001001010101100000111100;
	5724 :	01000100001100000011000001101011;
	5723 :	01000100001110011100110111100001;
	5722 :	01000010100100111101111011101111;
	5721 :	01000011100011110110110111110011;
	5720 :	01000011100111111001101101100010;
	5719 :	01000100001010011111001100101001;
	5718 :	01000100000000001000100001000010;
	5717 :	01000011011111001011101100010001;
	5716 :	01000011000110101110110100000111;
	5715 :	01000011100110011001111000111001;
	5714 :	01000011000000100010011000111010;
	5713 :	01000010100001101111101001111001;
	5712 :	00110100111100010110011001101100;
	5711 :	10110101011001111001000101100111;
	5710 :	11000010000110111101011100001010;
	5709 :	11000010111011001010100100010001;
	5708 :	11000010110111001110000000010110;
	5707 :	01000010100110111000111000101111;
	5706 :	01000011011101101011111101010001;
	5705 :	01000011010011100111000111100010;
	5704 :	01000011000100010000111111011011;
	5703 :	11000010001100111101000001101100;
	5702 :	01000100000000010010010100100000;
	5701 :	01000100001101011111111100001000;
	5700 :	01000011101101011111111110000110;
	5699 :	11000001100010111010110010111001;
	5698 :	11000011101110100001011100110110;
	5697 :	01000001001010010000010010011010;
	5696 :	01000011110011100101000000000010;
	5695 :	01000100000000000110011001000101;
	5694 :	01000011111001011111010000110001;
	5693 :	01000011100111100111000101010101;
	5692 :	01000001101001011011010110110001;
	5691 :	01000100001001110001111000000100;
	5690 :	01000011110100110100101110111011;
	5689 :	01000011001100010000010010000011;
	5688 :	01000011010001010100101111110110;
	5687 :	01000011001111111100001111110000;
	5686 :	01000010100001001010100000011111;
	5685 :	11000000100000000101100100110010;
	5684 :	00110100000111011001111000001011;
	5683 :	00110101101001001111011010000001;
	5682 :	11000010001100001000010101111110;
	5681 :	11000010101111010111101110111101;
	5680 :	11000010110011010110100001101111;
	5679 :	11000010101001110111001011100100;
	5678 :	01000011011001011100001001000101;
	5677 :	01000011010001110001011100010111;
	5676 :	11000011101000011101001100110001;
	5675 :	11000011001011111000011011001001;
	5674 :	11000010100010111111000101110101;
	5673 :	01000001111000001011000001110100;
	5672 :	11000010001101111011111101010101;
	5671 :	11000011010110001010111101010111;
	5670 :	11000011100001001000010100010100;
	5669 :	01000001100101110101101001100011;
	5668 :	01000011110010011010011101110010;
	5667 :	01000100000110010010000101111011;
	5666 :	01000100001010110010001001011110;
	5665 :	01000011100101111110000101001111;
	5664 :	01000011111010011100000101111010;
	5663 :	01000011110001001000101111111111;
	5662 :	01000011101100010101100100001101;
	5661 :	01000011010100110110101101001000;
	5660 :	01000010011011111010111000011100;
	5659 :	01000001110101110100010100100100;
	5658 :	01000001101000111000010010100010;
	5657 :	10110011001101110000011010110011;
	5656 :	10110101001111110110011110000010;
	5655 :	00110100110100000001110010001010;
	5654 :	11000000000001111101000000011110;
	5653 :	11000000101101101100010111011001;
	5652 :	11000001111110010001110000101011;
	5651 :	11000010100010010011110111101110;
	5650 :	11000010110110100010100001111100;
	5649 :	11000011011111110001100000010100;
	5648 :	11000100000011011110011000000001;
	5647 :	11000100000100001111101101011011;
	5646 :	11000100000000111110101001110111;
	5645 :	11000011111001111110101101100011;
	5644 :	11000011000110000101011100100101;
	5643 :	11000011100001000111100111010010;
	5642 :	11000011101010011110110010011011;
	5641 :	11000100000000101110000111011111;
	5640 :	11000100000110100001001111101011;
	5639 :	11000011100110010100100010101101;
	5638 :	10111110100110101010111010111101;
	5637 :	01000010110101101110101000001101;
	5636 :	01000010110000101110010001010110;
	5635 :	01000010111110111100101101100001;
	5634 :	01000001000111100001001000101010;
	5633 :	01000010001010001110001011111110;
	5632 :	11000000101110101000110101001010;
	5631 :	00110001110101011010111100111100;
	5630 :	10110101010001000111001101010100;
	5629 :	10110100110101101100011011101100;
	5628 :	10110100000011001110011101111010;
	5627 :	00110101100001101011100001011110;
	5626 :	00110011000000101001001101011111;
	5625 :	10111111100110101101111001111001;
	5624 :	11000001001011000011011011100110;
	5623 :	11000001011011100000010111011110;
	5622 :	11000010000001100001100111010111;
	5621 :	11000001110110100000001010010101;
	5620 :	11000010101111101010110010010110;
	5619 :	11000010110001000001001001000011;
	5618 :	11000011001101100101110010100100;
	5617 :	11000011100010100101001110000111;
	5616 :	11000011101110110101110001011100;
	5615 :	11000011100110011100101011000000;
	5614 :	11000011101011101010011110000001;
	5613 :	11000011101101100000010101110110;
	5612 :	11000011100011101011110100011100;
	5611 :	11000011100101001011100000100000;
	5610 :	11000011100001100100110110010111;
	5609 :	11000011010101011101110100111110;
	5608 :	11000010101111100110101101111110;
	5607 :	11000010101101010001100001011001;
	5606 :	11000010010010001101001110110101;
	5605 :	11000010000010010101100001010001;
	5604 :	00110011110110111000110000111111;
	5603 :	10110100001010111100000011000011;
	5602 :	10110100001111101101101111000100;
	5601 :	00110101100100011111111000011011;
	5600 :	00110101001110011101110010111000;
	5599 :	00110100100111101111001000000111;
	5598 :	00110100000000000111000100110111;
	5597 :	10110100100001100100000100111010;
	5596 :	00110101000000111110100101001011;
	5595 :	00110100111010111001011010111101;
	5594 :	10111110011110111010101010000001;
	5593 :	11000001100000011001111100001110;
	5592 :	11000001111101111111101000001010;
	5591 :	11000001101110101101010011100011;
	5590 :	11000001010110000010010001010110;
	5589 :	11000001100011101100011001111010;
	5588 :	11000010010010010010011110100001;
	5587 :	11000010100111101101000110101100;
	5586 :	11000010101111101001100101011001;
	5585 :	11000011001000010001110011001101;
	5584 :	11000011001001100011110100010011;
	5583 :	11000011010100110110010101001010;
	5582 :	11000010110101111100000111011110;
	5581 :	11000010010000111111100111011100;
	5580 :	11000001111101011011001111101010;
	5579 :	11000001111011111010110101010101;
	5578 :	10111110100100000100010100100011;
	5577 :	10110100110000101100011010100010;
	5576 :	00110101001110101101010010110001;
	5575 :	00110100100100001110111011111101;
	5574 :	10110100100001011110100100110101;
	5573 :	10110001111101011100111010001100;
	5572 :	10110010101111011011111101100011;
	5571 :	00110101000000011000000100011100;
	5570 :	10110100100101110100001110100011;
	5569 :	10110011101101001011010111000111;
	5568 :	10110100101110111100100111000110;
	5567 :	10110011010101001100010010010101;
	5566 :	00110100001011111111001101110110;
	5565 :	10110101010110111010101101010101;
	5564 :	10111101100100011011000110110000;
	5563 :	10111111100000011100100000110010;
	5562 :	10111111101101000100001110001011;
	5561 :	11000000001100011001000110101000;
	5560 :	11000001000001111011000000101000;
	5559 :	11000010011100000110010100011100;
	5558 :	11000010001001110010100111110000;
	5557 :	11000001000110001010010110001010;
	5556 :	11000001011110110101101000011110;
	5555 :	11000001110010001000111111101010;
	5554 :	11000001001100100001110001000111;
	5553 :	11000001011010111111101111010000;
	5552 :	11000001010110100111111000000110;
	5551 :	11000001000100100111011110000001;
	5550 :	10110101000100011011100001101101;
	5549 :	00110100100110010110110000010011;
	5548 :	10110100111010011001111001101011;
	5547 :	00110010100100000100000100101011;
	5546 :	10110010100011000000001000100111;
	5545 :	10110100101110110010110010001110;
	5544 :	10110101010011001000001110111111;
	5543 :	00110100001101011100001010101111;
	5542 :	00110011100011111111010100010010;
	5541 :	10110101000111000111110001001011;
	5540 :	00110101000000011000100111001010;
	5539 :	00110100101001010101111100110110;
	5538 :	10110101000011010111000010010111;
	5537 :	00110100110011100000101111101010;
	5536 :	00110100101100000110101010001001;
	5535 :	00110010100010110101011101011010;
	5534 :	10111101011111100100100101100001;
	5533 :	10111111001011101101000110110010;
	5532 :	10111111001001100111111010001011;
	5531 :	10111101100101110101110000001011;
	5530 :	10110101000001101011000100110001;
	5529 :	11000000111000100101001101011101;
	5528 :	11000001100010011010010100101001;
	5527 :	11000001000010110100011011111110;
	5526 :	00110100101111101100111110010000;
	5525 :	11000000000000111110101100101110;
	5524 :	11000001000001101001010000001011;
	5523 :	10111111100111010111001110001010;
	5522 :	00110100101100101110000011100111;
	5521 :	10110100000100110100011111100000;
	5520 :	10110101010010001011011011011110;
	5519 :	00110101010101111000010001101001;
	5518 :	10110100000011000001011101011101;
	5517 :	00110011111000101011100011010001;
	5516 :	00110011000000110100101000111100;
	5515 :	00110100011110011100111110110010;
	5514 :	00110101001001100100000011111100;
	5513 :	10110100110010011010111010001101;
	5512 :	10110100101010110110000001111110;
	5511 :	10110101000001000111110101101010;
	5510 :	10110101001001110000111111100110;
	5509 :	00110101010101011010100001010001;
	5508 :	00110100101110110011001100000000;
	5507 :	00110100111100010010000100010110;
	5506 :	10110011100011101011111011010001;
	5505 :	10110100111001001110100111011100;
	5504 :	00110101001000101001110101110110;
	5503 :	10110101011001110010101001000000;
	5502 :	00110100100100011100101010010000;
	5501 :	00110100011101110100100111011101;
	5500 :	00110011100000010111100110010001;
	5499 :	10110100101101100000001001011011;
	5498 :	10110100101101001111100011100101;
	5497 :	00110100100101010011011010110110;
	5496 :	10110100111110010010011000101100;
	5495 :	10110011000101110011100011001101;
	5494 :	00110100110110101100000100011011;
	5493 :	10110011101111101111010101000111;
	5492 :	00110011100101001101110101001001;
	5491 :	00110011000000100100010101000100;
	5490 :	00110101001001001010000001010010;
	5489 :	10110001111111111100000000010101;
	5488 :	00110100111101011011100001111010;
	5487 :	10110101001001011011010101011110;
	5486 :	10110100001011111010110000110011;
	5485 :	00110011111100110110011100010100;
	5484 :	00110011101000111010100101110100;
	5483 :	00110100101010001100011001001110;
	5482 :	10110100011010011111110111010111;
	5481 :	10110011111111111001001101111111;
	5480 :	00110011000011011111101001001111;
	5479 :	10110100011101000011011010001001;
	5478 :	10111110011011101011100011111111;
	5477 :	10111111010001101010110110011010;
	5476 :	10111111101010110000111011010011;
	5475 :	10111111011000101000110111001110;
	5474 :	10111110111100101101100010011111;
	5473 :	10111111100111000011010000010001;
	5472 :	10111110111000100111110110001001;
	5471 :	00110100111000101111110101011000;
	5470 :	00110011010111110100111111100011;
	5469 :	00110100000111000010010100011100;
	5468 :	00110100100110111011110110010111;
	5467 :	00110101000000010101001101110100;
	5466 :	10110100010110101110010110110010;
	5465 :	00110100000011101000000110011110;
	5464 :	10110101001011010010110110000010;
	5463 :	00110100011000011010111101010010;
	5462 :	00110100110110110001011010011110;
